#version: 0.2
Ġ Ġ
č Ċ
Ġ t
Ġ a
i n
h e
r e
o n
e r
ĠĠ Ġ
Ġt he
o r
a t
Ġ s
i c
e n
e s
i t
i s
Ġ f
Ġ c
e d
i on
r o
Ġ p
n d
l e
in g
Ġ 1
Ġ b
Ġ d
e t
Ġ in
Â ł
l o
u t
a l
a n
Ġ o
Ġt o
a c
u s
Âł Âł
Ġ n
Ġa nd
Ġ m
a s
i g
en t
Ġ w
a b
at ion
a r
Ġ V
Ġ S
c t
Ġ1 0
Ġ T
Ġ N
a d
Ġ I
Ġ A
Ġ re
0 0
a f
Ġ C
i l
t er
Ġo f
Ġ (
Ġ is
c o
Ġc on
Ġ e
Ġf or
u l
s s
Ġ L
Ġ P
u r
u re
et w
v er
Ġ 2
e ad
a y
m ent
â Ģ
Ġt h
Ġ on
o d
Ġ D
or k
Ġ B
a m
Ġ M
Ġ E
Ġb e
ul t
a g
re ss
Ġ F
lo w
u p
i v
c h
ro ut
Ġd e
Ġa d
s t
o t
etw ork
A N
i p
i d
at e
c e
it h
f ic
Ġ us
o l
u n
o m
or t
it y
i re
ÂłÂł ÂłÂł
v ic
Ġ R
f ig
w it
ĠĠ ĠĠ
i m
r ic
as t
- -
Ġw ith
e ct
ac k
2 0
9 2
L AN
Ġ rout
1 0
ab ric
le af
l y
Ġ l
9 3
Ġ h
1 6
d ress
a p
Ġt r
e x
Ġ v
Ġa l
f ac
Ġn etwork
Ġ en
Ġe x
ter fac
is t
Ġp ro
Ġa re
ab le
G P
Ġ 3
ar d
it e
Ġ O
âĢ ¢
Ġa ead
o w
ĠT he
p l
Ġ lo
ĠI P
Ġa s
is co
c he
od e
ag e
Ġs wit
Ġad dress
e c
Ġth at
af fic
q u
al l
a nd
Ġa n
Ġs t
Ġcon fig
20 8
terfac e
i f
ic ast
2 5
X LAN
vic e
co m
Ġ or
es t
es s
Ġ g
f or
ĠI n
o p
che s
R F
en d
a ead
iv e
n ect
o ut
P N
i r
9 4
in e
ur ation
Ġtr affic
e m
p ort
ĠV XLAN
he r
ig ure
Ġs h
e l
ex us
T E
0 1
an t
u d
at a
Ġf abric
Ġ U
V PN
Ġc an
t o
Ġc om
o c
il l
T he
er s
TE P
ĠV RF
Ġm ult
o re
am e
a re
at ed
i b
s e
ĠV TEP
Ġs er
ac h
a il
ol ic
t ro
A C
Ġ 4
Ġs p
ig n
-- --
ĠC isco
o st
ay er
s p
ĠC on
for m
in t
n et
Ġp er
vic es
Ġcon nect
u m
l an
o ur
Ġ 6
i es
ĠN exus
ro m
od es
Ġs e
Ġw ill
ĠE VPN
ter n
l ay
w all
ire wall
Ġswit ches
1 2
v e
m c
tro l
p o
n t
i z
Ġf rom
tern al
Ġ H
g s
ĠĠĠĠ ĠĠĠ
lo c
p le
e af
Ġb y
u nd
Ġa c
Ġth is
u b
Ġ it
ct ion
1 3
F igure
in k
Ġ ip
y p
olic y
ĠA Z
c ess
ro up
Ġconfig uration
t her
2 4
w ard
1 1
Ġa ut
ĠL ayer
ic ation
Ġ G
e re
Ġ 0
Ġ |
ĠF abric
ack et
N I
ot e
t ion
a in
ow n
b mc
i fic
2 16
Ġ r
Ġpro v
Ġus ed
Ġa p
il ity
Ġn odes
Ġ 5
Ġ 9
Ġ un
low s
Ġn e
b o
l us
us t
h is
Ġde p
Ġde f
id e
e er
Ġp re
0 2
Ġrout e
es ign
Ġ leaf
ĠB GP
Ġo p
F C
r f
G W
lo ud
= =
Ġal l
Ġp ort
Ġ âĢ¢
ver t
ic al
Ġre qu
ĠL eaf
Ġn ot
lo y
e p
ĠS er
e en
etw een
Ġin terface
g p
Ġf irewall
m gs
b ack
an age
Ġb etween
our ce
T able
Ġp acket
an g
Ġcom m
vert is
Ġa t
Ġo ver
Ġw h
ĠM ult
Ġ le
ig h
B GP
Ġ âĢ
1 5
P C
o b
Ġw he
ĠA d
ĠV LAN
f r
as s
ĠN etwork
m ap
ÂłÂłÂłÂł ÂłÂłÂłÂł
w ay
3 2
en ant
Ġswit ch
b er
r ib
Ġus ing
loc k
lus ter
ar g
co l
anage ment
00 0
Ġ im
on fig
Ġus e
Ġ -
Ġmult icast
a ult
i o
t h
I n
p n
ĠT his
Ġd ata
Ġrequ ire
â Ĺ
S E
f ere
po int
ĠT C
) .
as e
1 4
u al
to col
Ġrout ing
ex t
c al
op back
Ġ W
A Z
Ġm ode
ab l
ct ive
in terface
Ġ6 5
ĠA S
at h
as ed
ĠB GW
w are
ĠN D
or d
ment s
Ġs ame
v pn
ar t
c a
ab ility
Ġre d
yp e
âĹ ı
Ġen d
up port
Ġconfig ure
Ġdep loy
ĠR out
ot h
er lay
ate way
am ple
Ġde vices
rib ut
arg et
Ġ up
Ġh ost
u e
v rf
i x
Ġan y
m in
s o
ic h
Ġser vice
Ġre m
Ġo ut
ire ct
ub net
Ġ und
. .
Ġb oth
on d
Ġe ach
Ġlo opback
c l
ĠV NI
Ġwh ich
as h
low ing
O S
e f
Ġcon trol
Ġn ode
Ġf ol
an s
ar y
at es
fr a
ĠC loud
Ġprov id
in ation
Ġap pl
16 8
g ress
il y
ĠI SE
Ġre ce
Ġg roup
er ation
at ure
ĠS t
an ce
Ġp olicy
ĠP ro
wit ch
Ġs et
Ġs upport
I C
Ġfor ward
i e
Ġbe low
form ation
ca le
f er
c ast
Ġp eer
m it
bo ard
gp u
r iv
Ġd esign
---- ----
Ġconfigure d
ĠN A
am ily
Ġ2 5
M C
n o
c r
Ġf lows
le ct
t r
2 6
iv ity
Ġsp ec
i ed
Ġon ly
Ġad vertis
e ature
Ġun icast
est ination
3 0
d u
Ġs ec
ion s
o u
f ix
Ġlo cal
ĠND FC
O B
m t
Ġs ite
ash board
6 4
s er
Ġa ss
if fere
25 2
ent er
ĠS ite
Ġne ed
Ġend point
terfac es
p ro
ĠD ashboard
Ġv PC
Ġs ource
ĠS p
ĠT r
Ġc h
Ġex ternal
iffere nt
y s
Ġip v
Ġdef ault
l ic
v ail
Ġ 93
ur ity
ist ribut
a ve
p s
are d
Ġ y
Ġ1 7
Ġb u
Ġconnect ed
un ction
Ġrout es
g ment
lan e
p ut
lo g
Ġl ink
Ġfol lowing
ver s
at ch
Ġal so
re e
ob j
c y
0 4
Ġac cess
t arget
iz ation
1 00
Ġc luster
o f
Ġund erlay
c ap
Ġm ust
im e
ro ss
ĠF or
Ġf unction
2 3
Ġin formation
Ġwhe re
0 3
ÂłÂł Âł
ĠD C
Ġd estination
âĢ Ŀ
Ġo ther
i le
Ġ 8
G S
n ing
Ġd ifferent
Ġon e
ĠĠĠĠ ĠĠĠĠĠĠĠ
c es
Ġ he
ĠR e
i a
it ion
k e
S ite
y st
Ġm anagement
Ġac ross
ĠAS IC
Ġrem ote
T P
re d
ar io
g h
Ġex ample
b l
g r
ac t
ĠM AC
ord er
f amily
Ġ2 3
ĠâĢ ľ
4 2
n el
Ġh ave
ĠCon trol
ĠMult i
ĠL o
== ==
Ġm ore
Ġex t
S t
ĠO p
Ġper mit
w o
C onfig
Ġ Q
I P
cl ud
A M
Ġpro tocol
Ġspec ific
sp ine
in ed
qu e
ther net
ĠB MC
Ġper form
g e
Ġt ag
ĠE x
s ide
oc u
M P
Ġs u
Ġde vice
Ġp o
rout e
Ġp l
Ġnetwork s
25 5
Ġt wo
g ed
Ġin terfaces
ur ing
ĠCon fig
i al
Ġb ased
ĠP ort
Ġh as
Ġcon s
1 8
ĠO OB
Ġin fra
em ber
A P
ĠĠ ĠĠĠ
ocu ment
âĢ Ļ
en s
Ġin st
Ġad d
ĠVTEP s
yst em
Ġp art
bl k
wit ches
um ber
s ul
Ġs end
Ġc l
2 8
W S
ĠL oc
ĠM GS
ĠE n
Ġ9 000
Ġd et
Ġcomm un
ĠTC P
cap sul
ĠC ore
ĠB lock
Ġ1 92
riv ate
u gh
ro ugh
ĠM P
Ġy ou
2 15
ĠC om
Ġconnect ivity
# #
l ink
Ġp ath
C isco
Ġen abl
com m
l s
g est
Ġb ack
Ġm a
h ys
Ġ 7
o ul
Ġcon t
cr ip
oul d
d c
t ual
Ġpre fix
ir tual
2 9
F X
Ġre s
em pl
S cale
l ist
hys ical
d ata
Ġtr ans
a us
igh b
g mt
Ġf low
Ġn o
ĠâĢ ĵ
Ġd o
Ġrout er
N D
lo ad
crip tion
V NI
ail ure
) ,
or age
Ġwith in
Ġit s
I M
Ġin ter
Ġ10 0
c onfig
Ġth rough
ip le
ĠTC AM
gest ion
2 2
Ġin clud
ad dress
Ġ3 00
ang u
ie w
ighb or
Ġs ubnet
a ir
b y
9 9
s h
ĠA l
Ġc ap
n i
Ġ GP
Ġt able
Ġat t
Ġrequire d
0 8
Ġd ocument
Ġwhe n
Ġaddress es
Ġd is
ĠD e
d own
h op
es cription
Ġsh ared
Ġsp ine
r y
Ġover lay
Ġ93 00
ĠR P
c on
Ġ if
Ġ1 6
ĠT enant
t ing
y n
Ġf eature
Ġprovid es
ĠN WS
ĠLoc al
c ed
Ġt ype
ĠN X
Ġcomm and
empl ate
c en
f fer
ĠD esign
cen ario
Ġp r
and w
end ed
ĠD ata
Ġn ext
ver y
Ġforward ing
vail able
Ġsu ch
G X
h t
t ware
ing le
ap p
Ġsh ow
Ġle ar
Ġdeploy ment
w s
it es
Ġn umber
ific ation
C L
Ġmult iple
ĠF igure
Ġaut o
ang e
ĠMult icast
if y
Ġport s
c cess
ĠA n
ect ion
10 1
ĠE thernet
ĠF irewall
Ġl ist
of tware
< /
l er
Ġt enant
Ġe vpn
ĠNA T
v el
on e
lect or
Ġt ime
b r
t s
Ġ *
Ġen s
2 7
r u
id th
Ġa r
he nt
Ġo b
andw idth
v lan
ĠS G
1 9
n ws
Ġ1 5
ĠM anagement
p p
Ġto ward
om ain
4 5
Ġ que
Ġfabric s
Ġred irect
Ġ x
Ġendpoint s
0 5
Ġa ctive
Ġs im
oc i
angu age
en cy
i or
ĠTr affic
Ġ :
at or
1 7
x im
Ġ Y
Ġ id
Ġc enter
ac e
ĠSer vice
Ġ17 2
in es
Ġdef ined
ĠP olicy
v ir
Ġ "
ĠS witches
vir on
D P
t e
on g
Ġpacket s
Ġst at
a v
ĠP IM
c k
e ch
at form
Ġs ingle
it ect
ch itect
Ġrece iv
Ġ ro
Ġsh ut
re t
iz ed
0 6
N ote
s witch
ac he
Ġm an
Ġcon gestion
i ent
Ġc ase
ĠAd min
Ġd omain
ĠT ag
Ġid ent
ĠS witch
ĠP rivate
ru ct
g roup
Ġ ent
ĠRout e
Ġlo g
Ġprov ide
Ġass oci
C N
ic e
is ion
Ġ1 3
m gmt
v ent
Ġin to
log y
ĠConfig uration
Ġcl ass
Ġenabl ed
he n
ĠI D
Ġg ateway
out e
Ġsh own
12 8
ĠF low
Ġv ia
vertis e
s ent
Ġp lane
10 2
Ġv al
chitect ure
p er
Ġd irect
Ġop eration
Ġ ing
Ġb lock
Ġens ure
hent ication
ire ction
L S
Ġp hysical
ib le
C E
L eaf
ail s
ĠSp ine
Ġs o
Ġappl ication
b e
Ġo sp
ĠIP v
Ġsec urity
Ġdo es
Ġw ork
Ġser ver
AC L
ition al
Ġ1 8
4 8
T C
o s
w w
Ġ >
Ġa vailable
put e
Ġcommun ication
at ing
Ġal lows
Ġshut down
F P
R P
ĠA ccess
che d
Ġser vices
ef ault
ĠI t
ĠP eer
v ed
ĠBGW s
Ġb order
ist r
for ce
Ġmode l
Ġ K
ĠC luster
ĠSer vices
O N
Ġ /
en ce
ec urity
o us
an nel
Ġv rf
ĠPro tocol
ĠDC I
Ġs ystem
ol ut
ĠG ateway
Ġadvertis e
Ġpo int
viron ment
Ġing ress
c p
t ed
in d
Ġs ites
Ġm atch
ĠA ut
ard ware
xim um
0 7
el l
Ġim port
V XLAN
m et
ruct ure
Ġus er
olic ies
Ġse gment
ĠRout ing
Ġc re
25 4
Ġthe re
le ase
Ġd istribut
and by
iz e
j ect
Ġm ember
f w
Ġre ach
ĠVRF s
p ar
p ly
Ġb ut
Ġin d
Ġen capsul
tion s
Ġadvertis ed
ĠDe vice
R M
p br
Ġb andwidth
Ġd ro
Ġh ow
Config uration
V RF
n e
p re
or m
S P
d ate
Ġ X
or oute
ĠN odes
ĠĠĠĠ ĠĠĠĠ
Ġaut oroute
fere n
o k
ple ment
C on
Ġal low
Ġne w
ĠGP U
Ġthe ir
ĠA CL
Ġp air
Ġv irtual
2 00
A d
B M
at ive
Ġbu ffer
ĠA ctive
ĠSt orage
Ġ et
Ġm ay
F or
Ġl anguage
if ied
Ġthe se
un t
ĠO ver
Ġe BGP
ut il
ĠT ype
ĠT emplate
du ct
E D
c isco
Ġ 92
pl ication
ĠAd dress
Ġpl atform
Ġlear n
Ġar chitecture
o sp
ĠN V
Ġre g
Ġ5 00
C P
Ġs oftware
ic ated
ĠI f
Ġap pro
bo ve
Ġappl ied
p h
Ġm app
se gment
-------- --------
9 5
b ased
Ġt yp
Ġaut om
==== ====
Ġm gs
Ġ <
Ġa bove
Ġpro cess
Ġshow s
nd erlay
ag es
our ces
Ġpeer ing
Ġc o
il d
ĠIn terface
ĠVLAN s
Ġ util
le x
ĠN ode
ĠP lane
ep loy
olut ion
Ġb ond
im it
ĠE th
ĠCon nect
Ġany cast
Ġhe ad
2 1
c re
as es
ĠO B
Ġcom p
w ord
Ġf ailure
ĠM ode
Ġh igh
Ġob s
/ /
s ource
Ġ =
ic s
Ġb gp
Ġen able
ĠControl ler
force ment
E R
ĠT o
ht t
C loud
y cast
Ġf r
Ġe le
Ġne ighbor
Ġ23 9
Ġassoci ated
Ġa b
ation s
m s
p ath
ĠN ame
co re
ast ructure
Ġex p
fr astructure
F D
Ġmult i
St ep
Ġback up
Ġredirect s
ĠG roup
ical ly
Ġlink s
Ġdocument ation
: //
T his
Ġ1 4
Ġus es
Ġse par
n ame
t im
ÂłÂłÂłÂł ÂłÂłÂł
Ġv ni
ust om
Ġle vel
Ġim plement
9 7
A pp
ĠT RM
Ġv lan
ib ility
ĠLo g
f ter
im ary
Ġdeploy ed
ret ched
Ġw e
Ġre st
Ġrece i
Ġass ign
N exus
Ġthe y
ig in
ĠV lan
Ġr un
d ent
an cy
ass word
ĠCloud Scale
Ġsec ond
g ing
m p
Ġc aus
um m
ĠH ost
o se
un nel
3 6
h or
Ġs cenario
Ġsh ould
B R
a a
ĠSer ies
Ġthe m
Ġthe n
vail ability
Ġext ended
Ġe gress
ĠP re
Ġ2 4
ĠO SP
Ġdep ic
Ġcons ist
Ġsubnet s
Ġtoward s
ph ant
Cloud Scale
i el
Ġs ub
en er
Ġen vironment
iel d
3 4
ed icated
00 1
un ity
Ġl ayer
op s
Ġque ue
i er
it ies
an e
htt ps
0 9
e ed
ar am
Ġad min
Ġse g
ere d
du ction
S er
Y C
Ġ [
and ard
AC S
AC ACS
ĠSG T
Ġhead er
r map
s ubnet
ur po
ĠO n
io us
## #
m ember
is ite
ol d
D C
ĠE CN
Ġund er
aram et
Ġ &
ar k
ĠV PC
abl is
link s
Ġres ult
ok up
V I
ĠE ach
ist ing
Ġ25 5
p olicy
q os
Ġ ed
Ġt a
ĠI dent
.. ..
ND FC
p e
Ġin cre
Ġin frastructure
ĠD eploy
un k
Ġrout ed
ĠOB J
3 5
V LAN
f ore
v iew
Ġ ver
Ġc ar
al ly
all ed
ir st
or y
Ġp olicies
Ġin t
ĠA RP
ÂłÂłÂłÂł Âł
ĠR o
Ġl at
all en
ĠU DP
Ġinst ance
yn am
c lus
k n
m l
Ġlo c
Ġor igin
em ote
Ġseg ments
N S
v ious
er t
Ġd edicated
Ġin side
ĠA s
Ġal loc
ĠU nderlay
Ġout side
ache d
M ult
u es
Ġp im
Ġre tr
ce p
18 0
ĠCom pute
p r
v c
Ġ 00
Ġd own
Ġn ve
rout er
est ablis
T o
on it
ĠP o
AN G
Ġtr ack
Ġcom ple
Ġsepar ate
ĠOSP F
f fic
on ly
Ġb o
comm unity
ior ity
Ġreceiv ed
P BR
Ġ i
Ġ j
ĠS h
Ġval ue
D I
g ateway
m atch
Ġr map
3 3
A S
b ers
b ps
e le
m ult
r d
s ite
ĠS VI
ĠN BM
ain ing
S p
n er
Ġ establis
Ġa g
Ġs ection
ĠU n
13 7
Ġhost s
ĠOp en
aramet ers
T TP
U M
W h
d escription
Ġa ct
ĠV M
ect ive
igh t
lic k
con nect
ting s
S T
l ess
re am
Ġ1 23
ĠS S
Ġpro duct
ens ion
F abric
e ver
Ġf ield
il ar
ĠB order
Ġtr unk
Ġ92 16
A s
i as
v n
Ġb r
ent s
ĠS cenario
ort h
eration s
ĠEx ternal
Ġdet ails
ĠAn ycast
D AP
P ro
l es
or ing
Ġf w
Ġlo okup
Ġg ener
Ġrequire ments
ĠW hen
Ġfunction s
Ġtag ged
ĠNV E
al ic
ĠR emote
way s
Ġfunction al
ĠAl l
ĠY ANG
ĠA p
Ġre sp
Ġre comm
Ġwith out
Ġ3 2
Ġpre vious
Ġneed s
Ġcons id
ision ing
X X
b and
Ġs ign
is s
Ġd es
us e
ent ial
Ġcont ext
Ġappro ach
ĠF ailure
Ġsupport ed
gr am
Ġatt ached
Ġosp f
ne ighbor
path s
f f
Ġ ke
ro ad
Ġn ame
ad vertise
co unt
ch annel
Ġup date
Ġinclud es
road cast
Ġc ustom
Ġ2 00
Ġbe ca
Ġst ate
Ġg o
Ġred und
mt u
Ġtyp es
Ġed ge
Ġbeca use
4 0
C h
C MP
v ni
Ġc or
Ġp urpo
ĠP FC
ĠR ed
Ġrout ers
93 180
Ġ4 0
Ġperform ance
Ġma int
ĠPeer ing
feren ce
Ġele phant
a ximum
it s
Ġl imit
ĠFabric s
bo und
Ġver ify
4 3
c rib
r ies
x x
Ġs cal
Ġop tion
ĠTag ged
Ġmapp ing
* *
3 1
Ġt ech
Ġs olution
Ġd uring
ĠN ot
ul ar
Ġth an
Ġh ardware
Ġtr ad
Ġneed ed
alic o
O n
P E
f ls
Ġ2 0
ect ed
Ġex port
cl ass
ef ine
istribut e
Ġlog ical
6 8
E A
s d
Ġf igure
Ġd en
Ġfor m
ĠB UM
ap er
Ġal ways
Ġser vers
Ġop tim
8 9
E x
f d
h ost
ĠT ACACS
00 00
Ġe v
Ġst orage
ĠAZ s
Ġaut hentication
Ġpre sent
ÂłÂłÂłÂłÂłÂłÂłÂł ÂłÂłÂłÂłÂłÂłÂłÂł
red ist
6 5
9 000
A l
p eer
s ed
Ġd ue
an is
an ning
ĠI N
Ġ2 01
ĠIn ter
Ġ: :
ech anis
met ry
ĠConnect ivity
A ctive
O C
et h
Ġin ternal
ĠB u
ch ie
Ġse lect
Ġwh ile
Ġbu ild
ĠPort s
istr ation
umm ary
O U
d efault
re sh
Ġto po
Ġw ell
Ġare a
Ġstat ic
pre sent
f eature
r on
s dc
v ant
Ġt unnel
Ġm ess
ver se
Ġbe h
Ġlo ad
ĠPro v
Ġhe l
aus e
ww w
ĠIdent ity
9 6
u ing
ĠD own
Ġbe com
loc al
lic e
ĠCom m
v es
ĠV PN
ĠP r
ĠD et
ĠE gress
iv ed
10 3
arg e
Ġpr imary
te gr
onit oring
o ob
Ġp assword
Ġn on
Ġm ice
Ġ2 7
mc ast
Ġmode ls
ert ific
resh old
) #
f low
m iss
r ite
Ġa chie
an ces
Ġre fer
ĠC L
Ġad j
om e
Ġse e
Ġconfiguration s
Ġop s
lic es
ario us
ht ml
Ġro le
ynam ic
gram m
Ġtopo logy
re nt
Ġm echanis
Ġre present
ĠL DAP
ĠO ut
ĠSer ver
Ġgroup s
ĠFor ward
Ġprefix es
TC ON
TCON F
5 5
C T
D M
M L
y m
in ternal
Ġp ers
Ġm od
ĠS et
ĠC enter
iv id
ust r
Ġ300 00
sh ow
I S
s es
v ing
Ġb est
Ġre f
20 1
Ġv arious
ĠGP O
allen ge
1 92
E thernet
c ing
e ar
Ġ ill
Ġf irst
Ġapplication s
hor ization
EA F
Ġill ustr
2 24
i et
Ġs ess
Ġp arameters
ĠS P
Ġe qu
Ġatt ribut
Ġident ity
Ġlearn ed
kn own
Ġcor re
3 7
5 1
Ġ vers
he ck
ac ity
Ġm in
Ġw ould
ĠS ecurity
il ter
Ġun i
Ġcont ain
Ġtrans port
R AP
o id
v al
Ġ ....
Ġm o
Ġe PBR
ĠB ack
ÂłÂłÂłÂł ÂłÂł
Ġst andard
ĠU p
13 0
ĠW h
Ġprotocol s
Ġdis c
Ġutil ization
g re
h o
i ag
o S
er m
Ġm e
ar se
ĠH ow
15 9
ĠVNI s
ĠSt at
T Y
r it
w n
Ġs yn
is e
ul l
ĠL AN
Ġth ose
Ġst ep
ĠG ig
Ġap ply
ep end
Ġoperation s
Ġrun ning
ĠRo CE
Ġ123 45
Ġtech no
Ġuni que
2 13
H ow
N MP
e vpn
n ode
Ġ qos
it her
Ġf lex
st r
Ġrequ est
Ġcomm on
cr yp
E n
c ur
i ke
on ents
ĠA I
il ities
Ġe very
ĠL ink
iv en
Ġl arge
ist ics
AC P
Ġsp ines
ĠNetwork s
Ġim age
Ġdeploy ments
Ġext ension
Ġreach ability
ĠPre fix
A R
t ree
Ġa v
ro p
ac l
ĠS e
Ġh and
ist ent
Ġg et
Ġ6 4
Ġse qu
Ġr ate
Ġop er
ĠAS N
Ġout put
Ġsupport s
tr act
Ġpo ss
sd s
3 00
I N
e b
s ing
s witches
Ġ qu
Ġs ize
ĠS ec
Ġre plication
am pl
Ġma ximum
Ġinclud ing
Ġman ag
Ġassign ed
ampl es
) :
W hen
e g
re m
Ġd escription
Ġe pbr
ĠP acket
20 9
pl ane
Ġst ream
25 0
In gress
Ġstat us
ck et
Ġdistribut ed
Ġdes crib
Ġadj ac
Ġav oid
t y
Ġin tro
Ġn ative
Ġw as
Ġlo ss
Ġst retched
Ġpath s
ĠAut hentication
ĠDeploy ment
L o
S FP
f ip
m ode
m aximum
r am
Ġf ail
Ġin it
ab ilities
Ġe vent
Ġ2 8
ĠM B
met ric
Ġretr y
ivid ual
f ul
t enant
Ġs ent
ic ate
nd point
Ġw ay
Ġe ither
ĠThe re
ĠThe se
Ġst art
nt ag
ĠRe qu
St andby
Ġadd ition
Ġadd itional
ĠEn forcement
Ġent ries
B and
f ile
i ate
n exus
on om
ar ing
Ġbe en
Ġus ers
ĠR ead
pl ink
isco very
ĠU ntag
gre g
A DI
E S
N etwork
U S
f c
Ġt im
ĠN o
ĠA r
Ġre pl
ol lector
ex ternal
Ġex ch
Ġst andby
Ġrequire s
Ġred u
Ġrece ive
tr a
Ġch o
gr ad
Ġdirect ly
Ġsegment ation
ĠForward ing
G M
e ers
u ide
he d
re qu
Ġb roadcast
ĠS FP
ĠN TP
Ġre l
ĠR es
Ġex isting
ĠIn formation
ĠU plink
oc p
ser vice
ator s
Ġrecei vers
Ġlat ency
Ġev en
p end
re ad
Ġc alled
Ġin tegr
ĠI S
Ġof f
ĠL ACP
ot al
ob s
ĠW ith
ĠLo opback
Ġadd ed
Ġres ources
Ġlear ning
19 1
Ġque uing
' s
C om
V iew
f abric
l ed
Ġt arget
as k
Ġ2 20
Ġth reshold
ire d
Ġen forcement
GP U
Ġsp ace
Ġ65 001
Ġwork load
Ġdro p
======== ========
Ġmaint ain
miss ion
O AP
P rivate
er min
Ġ1 2
ĠV irtual
ĠA FD
Ġencapsul ated
orm al
Ġallow ed
Ġsecond ary
Ġadmin istr
Ġdisc us
rem ote
E X
G bps
e low
s et
s ec
t en
w ork
Ġp eers
ĠS oftware
il t
ĠD efault
Ġbe ing
ĠIn gress
ĠU P
Ġr ack
Ġr ange
ĠAd d
Ġcap acity
Ġfeature s
Ġestablis h
Ġposs ible
H ost
s id
ĠS cale
ur n
Ġv ar
Ġst ore
ĠAd vertise
ache s
Ġent ry
clus ion
Ġredund ancy
C ollector
D OC
Ġ â
Ġo c
Ġm em
ab el
ĠP E
Ġ2 10
pl ay
25 1
ĠU ND
Ġ4 00
Ġdep end
Ġ65 101
ĠRe g
Ġ23 00
ĠOp eration
Ġinclud e
Ġcommand s
ĠHow ever
ĠUND ER
b al
p art
an ced
ĠS ubnet
Ġ2 6
up er
Ġl ong
Ġ3 0
ĠIP s
ec ific
Ġg iven
Ġprovid ing
ĠTr ans
Ġpr act
Ġreg ion
Ġfr ame
Ġdepic ts
ele metry
ĠSet tings
I O
P olicy
T r
t il
ľ ĵ
Ġs ample
Ġf lo
Ġf amily
le vel
et her
Ġm ost
ent ion
ĠS NMP
ch ron
ot her
10 6
93 64
out h
ir d
Ġswitch port
Ġprovid er
Ġsend s
ĠSh ared
ĠUn icast
Ġâ ľĵ
5 4
R I
f ree
Ġa m
in fra
Ġf ac
ed ia
Ġd irection
ĠC l
Ġal lowing
Ġsp arse
Ġup links
Config uring
Ġcap abilities
Ġdis play
ĠDe vices
Ġclass ification
Ġadvertise ment
Ġet h
Ġrecei ver
ffic ient
Ġmechanis m
ym metric
L K
S G
k es
Ġfirewall s
red istribute
Ġext end
ĠQ oS
con trol
iag ram
Ġintro du
B D
Ġ low
Ġc ol
ĠS ystem
Ġre lease
ĠF W
ĠIn fra
Ġop tions
Ġsec ure
Ġlist s
ĠOver lay
Ġta ke
Ġden y
ĠBu ffer
Ġflo od
6 3
I ON
P ath
S C
b ject
i ance
p ress
s vc
t es
w rite
x LAN
is ibility
Ġc lick
ĠS ource
Ġe q
ĠP hysical
ur rent
am es
Ġde capsul
Ġ3 000
Ġ5 0
Ġle ver
Ġprovid ed
Ġperform ed
Ġdet ail
ret ch
ĠOver view
Ġimplement ation
Ġdepic ted
ĠCL I
Ġsequ ence
O ut
T ype
o in
Ġs oc
Ġc ould
ĠS upport
lector s
Ġsim pl
Ġexp ected
Ġrecomm ended
5 2
8 0
a vailability
t t
Ġs ome
Ġb ias
Ġd iagram
Ġm ap
ĠOp tions
Ġinter connect
ĠProv isioning
epend ent
GM T
G MP
L O
c ent
ĠI m
Ġis ol
Ġde lay
ol s
ĠR ange
Ġpro b
end or
abl ed
Ġunicast route
ĠEn able
Ġ300 01
Ġconsist s
Ġbr id
Ġmess age
cryp tion
F M
L A
L EAF
Ġ ]
Ġo wn
ĠV xLAN
ĠN E
Ġl ine
ĠU G
ĠU ser
Ġaut horization
ual ly
Ġcontrol ler
Ġrest ore
mult i
OU R
TY PE
B elow
L ayer
O D
P S
at er
Ġc ases
Ġc heck
ĠS im
ĠT able
ĠC alico
10 5
um bers
14 1
Ġind ividual
Ġautom at
Ġmin im
part y
D efine
M e
S OUR
b u
f o
h ip
h one
t ype
ic ens
ĠT h
ĠL anguage
if ies
Ġconnect ion
ĠH TTP
Ġ9 5
AZ s
Ġ65 00
Ġcap ability
ĠFirewall s
Ġsim ilar
Ġoperation al
Ġensure s
aa a
Ġfunctional ity
RAP ED
SC RAPED
SOUR CE
H CP
a i
a ware
Ġs cale
Ġc ore
ab it
il es
ĠL S
ĠM S
ĠE ndpoint
Ġpro gramm
pl ic
and om
Ġdef in
igh ts
Ġrequire ment
Ġup link
Ġmapp ed
ark s
Ġcar ry
Ġsign al
Ġke y
ertific ate
DM A
Ġsess ions
8 4
A n
C S
R e
Ġa fter
re ate
on t
nd fc
lo t
ac cess
co d
ur st
ĠF lows
16 0
Ġg r
iz es
SE CT
ĠSt retched
ĠAdmin istration
Ġcaus es
Ġag greg
Ġbeh av
ĠRoCE v
SECT ION
5 3
D T
b gp
n ot
Ġre ference
ĠP olicies
ĠM VPN
Ġh op
Ġor d
Ġch ang
Ġcont in
switch port
ĠGPU s
Ġtrad itional
ĠGig abit
Ġtechno logy
Ġdescrib ed
7 2
B lock
I f
p act
Ġ +
ĠA P
Ġcon tract
Ġe as
up press
for ward
ĠIn t
Ġ4 8
ĠCon gestion
ys log
ĠEx t
Ġplatform s
Ġab out
Mult icast
Ġresp ective
Ġpurpo ses
eth od
Ġc ent
Ġw ant
20 5
ĠO bject
Ġsp eed
OS P
Ġy our
IP v
Ġenabl es
Ġman y
Ġdro pp
Sp ine
ĠDown load
ĠRead er
ADI US
E VPN
E gress
I SE
R ED
f mc
g or
Ġs vc
Ġ1 1
Ġd ot
ĠV al
ĠS ummary
ĠS lot
ip v
Ġ3 3
Ġmult isite
Ġim pact
abl es
ĠRout er
Ġlocal ly
ĠDC GW
ĠASIC s
Ġpart ic
ĠSS H
Ġvers ion
D F
H TTP
e y
t cp
on s
Ġb as
an el
Ġm ention
Ġre ad
ĠD rop
ĠD HCP
ĠE CMP
Ġbe fore
ec ess
ĠIn ternal
ĠCom p
---------------- ----------------
Ġalloc ation
ĠDet ails
plic it
H R
p c
Ġ z
Ġt emplate
en ef
Ġf requ
Ġc urrent
an y
ĠT BD
ĠI GMP
ĠP er
rout es
10 4
Ġl ike
93 00
ow er
and s
if t
Ġdef ine
Ġfol lows
Ġimport ant
ĠLog ical
Ġscenario s
Ġloc ation
Ġinit ial
LA Y
multi hop
ĠAP I
4 00
F low
I MC
Ġt ree
in ce
Ġto t
as ter
ĠI GP
ĠP l
Ġ2 02
Ġth ree
20 2
Ġan other
Ġg re
Ġrem o
ser ved
Ġreceiv ing
ind ow
ell ig
Ġcre ated
Ġdistribut ion
Ġpair s
Ġet c
Ser vice
Ġcustom er
Ġscal ability
Ex ternal
Al l
ear n
Ġattribut es
Ġworkload s
Ġmention ed
7 3
M AC
p tion
Ġ enter
or s
ĠS lice
ĠI R
ĠA fter
Ġre aches
ur ther
Ġ2 2
20 3
Ġst retch
sp anning
ĠW eb
Ġunicast advertise
Ġch allenge
istribut ion
Ġpl ace
Ġcommun ity
Ġevpn redistribute
ACL s
Ġ500 01
Ġorigin al
cep t
Ġi BGP
Wh at
Ġhel p
ho so
icens ing
Ġtot al
5 7
P P
Ġ known
Ġb fd
Ġm ethod
ĠC P
ĠF ile
Ġde c
-- -
Ġ3 6
Ġ3 7
em arks
sp ond
Ġse q
iz ing
Ġpre vent
ass ive
Ġrem aining
ser ies
Ġbu ilt
Ġinst ead
comm od
Ġ16 9
Ġtime out
Con clusion
Ġalloc ated
Ġj oin
Ch annel
Ġillustr ates
iet y
Ġvar iety
Ġautomat ically
5 6
8 8
D D
N ame
S h
W ith
f ab
r c
v PC
Ġ ic
Ġb it
Ġd est
Ġm at
Ġm anage
ĠN ext
ĠN IC
ĠA g
Ġis s
ĠD escription
ĠM an
ag ing
Ġ3 5
Ġsh are
Ġcan not
Ġper cent
ÂłÂłÂłÂłÂłÂłÂłÂł ÂłÂłÂłÂł
âĹ ¦
ĠQ SFP
Ġ* **
Ġassoci ate
Ġcre ate
Ġencapsul ation
ĠGroup s
Ġcomple te
ĠIN T
Ġbecom es
Ġsyn chron
Ġdiscus sed
ĠNE TCONF
urst s
7 7
D ata
S M
l ine
s n
s ecurity
t ime
Ġ Z
Ġa ction
Ġc ost
Ġre t
Ġe fficient
Ġ2 30
Ġ2 200
Ġth ird
am ing
ce ed
Ġv pn
Ġby tes
Ġred irection
istribut ed
ĠRe lease
Ġtrans mit
Ġsim ple
Ad min
Ġco un
Mult i
Ġstep s
Lo g
ecess ary
7 5
F IO
d oc
e w
g w
o logy
u is
Ġs lices
ĠN umber
ĠP aper
ĠB y
st and
Ġpro per
ud p
ĠCon sid
13 5
vertis ed
ÂłÂłÂłÂłÂłÂłÂłÂł Âł
ÂłÂłÂłÂłÂłÂłÂłÂł ÂłÂłÂł
Ġup d
riv es
Ġdesign ed
Config ure
av ing
Ġpoint s
Ġdro ps
isting uis
Ġbo und
Ġpurpo se
ĠSP AN
Ġcorre spond
Ġoc cur
ĠUNDER LAY
Ġic mp
I D
U I
W est
e z
f lex
o ver
v ous
v anced
Ġn orth
ĠT otal
ĠR ADIUS
93 32
Ġex ist
ĠU se
Ġprov ision
Ġout er
pro be
Ġ8 0
ĠPort al
Ġcommun icate
subnet maximum
DC I
Ġresult s
ĠWh ite
AR T
ez vous
B GW
c loud
g th
k ing
l ing
r m
en capsul
Ġc rit
Ġb enef
lo ver
Ġm ain
up lic
up date
Ġv iew
oc us
ers ion
Ġconnect ions
ĠG u
Ġinst alled
Ġsend er
Ġtenant s
Ġdomain s
vent ion
ĠBack up
Ġam ong
ai lover
commod ate
doc s
1 10
A FD
E ND
N X
P IM
S R
g es
t p
Ġe ff
ĠR DMA
Ġl abel
Ġen for
ec ause
ĠIn st
op ology
24 0
Ġr andom
Ġprov isioning
14 9
Ġforward ed
Ġreceiv es
Con trol
Ġfr ames
Ġab ility
ane ous
clus ive
ST ART
XX XX
ĠPr imary
erm ine
onom ous
uppress ion
ellig ent
7 01
A p
A ut
I T
N WS
O M
P o
S ource
T arget
l ag
u ch
Ġf ls
ĠT ime
ĠN et
Ġ2 100
ult aneous
Ġal read
Ġcom pute
ep br
In fo
Ġset ting
ĠEn vironment
duct s
Ġcaus e
Ġrecomm end
Ġflex ibility
eg al
Ġbehav ior
Ġdest ined
Ġalread y
4 9
6 6
D e
E CN
L ite
O OB
U DP
b m
g ether
m e
m all
Ġc op
Ġ1 28
Ġd er
Ġd at
Ġn umbers
Ġm ark
ĠV IP
ĠA vailable
Ġre le
ĠM DT
Ġconnect ing
Ġover all
In ter
ĠW ork
ĠRe ce
Ġperform s
Ġcl aus
Ġtrans l
angu ages
Ġval ues
Ġoptim al
Ġget s
Ġexch ange
Ġord er
Ġfrequ ency
Ġclaus es
A T
C luster
F W
F ree
M GS
T enant
in terfaces
en gth
Ġf ilter
Ġc loud
Ġd ynamic
Ġin v
al ity
ĠD NS
st or
Ġpro duction
ard s
el ay
ain ed
mgs fw
ĠW RED
Ġfol low
Ġforward s
Ġinst ances
Ġind ependent
ĠNV Me
Ġautom ation
Ġcomp onents
Ser ver
pr iority
ĠAp pl
ĠIN F
Ġpers istent
Ġequ al
Ġrepl ace
Ġcorrespond ing
O R
S ecurity
S CP
S outh
l l
s end
x y
Ġ ----
re f
Ġs umm
ic es
Ġre feren
ĠC IMC
ter s
Ġcon d
ĠL anguages
ĠP DF
Ġal ong
Ġst r
Ġg u
ĠU CS
tro duction
Ġse le
24 2
11 1
ob e
ĠAd obe
Ġim ply
ser ver
Ġ93 32
Ġhe re
Ġcons um
Ġ300 02
Ġlist ed
Ġblock s
ild ing
Ġbr ing
ĠNot ification
Ġrefer red
uplic ate
Ġsumm ar
B u
I t
S ec
U se
g u
s ights
w h
ĥ čĊ
Ġa ge
er net
Ġs lice
Ġf act
Ġp od
Ġm t
ĠS NS
co un
Ġe bgp
ĠD efine
ĠB LK
ĠM onitoring
ĠF eature
ĠR FC
Ġex pl
ite ms
ĠO PS
Ġconfig uring
Ġsh aring
ĠU sing
se qu
Ġac commodate
ub ernet
Ġle ast
Ġset s
ĠSp ines
act ive
clud ing
Ġpo ol
ĠAl low
Ġval id
ind le
Wh y
Ġmanag ed
ĠThere fore
ĠRequ ired
work er
Ġpract ice
ĠCl ass
ĠGigabit Ethernet
ubernet es
A A
M gmt
S S
U n
t d
Ġt ermin
Ġf ull
Ġf ocus
Ġc ertificate
ul es
ure d
ĠM edia
st at
Ġh ard
ec ut
Ġ4 7
Ġ6 0
Ġwh at
ĠMult isite
riv en
Ġass um
pro ducts
Ġdet ermine
Ġatt ach
ĠY ou
ĠOpen Config
Ġbuild ing
Ġbecom e
Ġadjac ency
Ġaggreg ation
ĠComp onents
lag s
3 8
E M
G roup
P r
R out
V TEP
r al
r af
Ġs che
Ġd ay
Ġm onitoring
ab ase
ĠS ites
ĠS lices
il i
âĢ ĥčĊ
ĠF LS
id es
10 8
ĠO ffic
Ġst ill
if orm
ĠAd vertised
Ġ65 103
Ġset tings
ou gh
ĠQ ty
Ġthrough put
22 1
by te
99 9
per i
ĠACL s
Ad dress
Ġprevious ly
Ġhel ps
Ġachie ved
ĠAr chitecture
ĠSFP s
Ġdetail ed
cod ed
C ore
L egal
c ul
l d
r is
t ure
Ġ J
Ġt ab
Ġt est
Ġp ause
Ġof ten
ĠB ond
un ication
ect ions
ap i
com ing
ĠG UI
Ġ5 6
log ies
Ġcl ient
ify ing
ĠK ey
Ġunder stand
bers hip
Ġscal able
vant age
ĠComm unication
Ġachie ve
ĠStat ic
ĠSec ure
Com m
Ġdropp ed
6 0
6 1
6 9
S ample
d e
g ine
i ated
n x
n ed
Ġ k
in ter
Ġ1 9
et ter
Ġn ow
Ġm et
Ġ10 2
ĠA ss
ĠC ap
ĠC lick
Ġe ar
ĠD B
ĠD iscovery
ĠM GMT
Ġtr ap
her it
13 3
Ġop en
Ġdesign ated
Ġ23 01
Ġsu ccess
ĠConfig ure
Ġma ke
dc gw
pre pend
Ġreg ions
ĠTo R
Ġtrad emarks
Ġ201 5
Ġdepend ing
ĠTrans port
til ization
ĠIm age
gor ith
ĠPl atform
ĠZ one
2 25
7 4
8 1
D esign
E T
N BM
N ormal
Q in
U nderlay
d en
p ip
s ub
ic ro
en ancy
Ġf our
Ġf air
Ġp ay
Ġp ub
Ġb etter
Ġn ecessary
Ġw indow
ĠT yp
Ġ2 9
ment al
ĠE BGP
ex port
Ġ3 4
Ġst orm
ĠIn band
her net
Ġ4 43
13 6
ang ed
Ġle ad
Ġ65 5
ĠEx ample
list s
ĠY es
Ġet hernet
Ġta kes
Ġselect ed
Ġmo ve
grad e
Ġdecapsul ates
bu cket
OSP F
Ġinv ol
Ġpay load
2 20
M S
P FC
R U
R ed
c ies
f ilter
n etwork
s ystem
t mp
Ġt cp
er n
er ing
Ġs mall
en cies
it ions
Ġf ailover
Ġp tmp
Ġd istinguis
Ġto gether
Ġw ere
ĠV ersion
ĠS cal
ad e
ĠC reate
ĠL icensing
Ġ2 1
ĠM M
Ġbe l
ĠF ab
end er
are nt
back up
cr im
ser vices
Ġch ange
ĠDC N
con f
ĠAn y
Ġsim ultaneous
Ġro ot
ĠLog Collector
Ġact iv
iet f
Ġattribut e
Ġflex ible
ĠUntag ged
ĠVal ue
ĠCP U
ĠAg ent
ĠConsid erations
ĠRece ived
wh ite
ĠOffic e
4 43
5 0
6 7
8 5
I F
S et
T U
b lock
n m
p ag
Ġd one
Ġin ner
ent ly
ĠS olution
ĠN aming
Ġcon ver
ĠP OAP
ĠF X
Ġde l
Ġen viron
Ġex ceed
ĠPro file
ĠEx cep
Ġenabl ing
Ġro les
Ġ500 02
Ġappro pr
ĠOn ly
Ġbo ot
ilar ly
ĠSec ond
Ġloss less
Ġoff ers
Ġenviron ments
Ġappropr iate
2 14
8 2
8 7
A t
A fter
B MC
D estination
E ach
F LS
H OS
i BGP
re a
at al
Ġs ide
Ġs ections
Ġf o
Ġp ot
Ġin tra
lo bal
Ġto p
ĠV isibility
ĠA tt
ĠC atal
ĠP ers
ĠR est
ack ing
Ġv n
Ġal gorith
Ġen h
Ġpro file
Ġst ud
ess ion
ĠH ardware
Ġaut onomous
ĠG W
Ġspec ified
Ġbu cket
Ġback end
Ġpr iority
Ġob ject
ĠAddress ing
Ġ500 00
Ġexp ans
Ġconsid ered
Ġconsid erations
Ġke ep
Ġredund ant
ĠRed irection
ĠDown links
ertific ates
Ġme ans
ĠUplink s
Ġbrid ging
Ġdefin ition
Ġret urn
Log Collector
Ġdat abase
Ġreferen ced
HOS O
Ġpot ential
ĠCatal yst
L D
N ode
O p
R o
S e
c ord
g o
i ver
i ances
l ater
n bm
Ġ er
Ġs ources
Ġ1 10
Ġb al
an cing
ad min
Ġre al
Ġre verse
ĠE d
ĠR ef
Ġtr a
Ġpro pag
if ier
el f
24 1
ĠG X
ere st
col later
Ġset up
Ġadvertis es
ĠQ OS
Ġens uring
ĠAut o
Ad d
Ġint erest
Ch allenge
Ġlimit ed
Ġmess ages
ĠReg ion
Ġchang es
Ġbenef its
Ġenfor ced
raf t
collater al
6 00
7 9
P OAP
U sing
f il
s ection
Ġt ables
in ess
ro w
Ġb ursts
al th
ab out
ĠS uper
Ġ10 00
ĠI LO
Ġre write
Ġre served
ĠD st
ĠM od
ĠE ast
Ġde ep
ip ul
ol lo
Ġh ig
Ġh ash
16 1
ĠO ther
ĠIn sights
The re
Ġse ver
ve lo
po ol
ain s
ĠSer vers
In terface
Ġred istribute
empl ates
Ġredirect ed
xim ate
Ġent ire
Ġfr ont
Ġab le
Ġincre ased
Ġloc ated
Ġestablis hed
Ġag ain
300 4
ĠRequ ire
ES TCONF
Ġcho ice
SG T
Ġlever aging
Ġpartic ular
HTTP S
Sh ift
Ġnorth bound
Ġpub lic
ĠTyp es
1 13
2 10
3 9
= "
A ware
G en
P ort
T ACACS
V R
V lan
V irtual
b andwidth
h ardware
m ed
n s
n ic
p ed
t ection
x lan
Ġ ib
re verse
Ġs ex
en u
Ġp aper
Ġb l
Ġb p
ac ial
Ġm ac
il it
ĠP IP
ol lowing
ĠR FP
Ġen force
ec onom
Ġst rives
Ġor ient
Ġg ender
ĠIn clusive
ĠU s
11 5
Ġr acial
Ġim pro
io econom
In ternal
Ġ65 01
.. .
Ġforward ipv
ĠMP LS
Ġinter section
Ġcap able
Ġdis ability
Ġdis crim
Ġauto address
Ġencapsul ates
Ġhigh l
Ġredirects ip
Ġimplement ed
Ġwe b
mult isite
Ġmem ory
Ġlong er
Ġeth nic
Ġsoc ioeconom
Ġprob le
ĠUser name
Ġcent ers
Ġmat ches
Ġiss ues
Ġfollow ed
Ġmt u
Ġhard coded
ĠExcep tions
Ġsex ual
Ġorient ation
Ġintersection ality
Ġdiscrim ination
Ġsocioeconom ic
8 3
C s
D ynamic
d ocument
h om
l b
p ective
Ġt elemetry
Ġa ff
in ning
le phant
Ġd iscovery
Ġn ormal
ig g
ar m
ĠN orth
Ġre as
ĠP C
ĠD PP
ĠM TU
ĠE ther
20 4
ĠThe y
loc ation
Ġ5 4
Ġ9 8
Ġun n
Ġpre fer
ef ined
Ġappl ies
ĠPro duction
OB J
Ġ93 64
ĠOp erations
Ġinst all
config ured
Ġstat istics
Ġclass ified
TC H
Ġcre ation
95 00
Ġcomple x
ĠOpen Shift
Ġsign ific
Ġbeh ind
erm es
Ġfac ilit
Ġbound ary
Ġib gp
. ,
L ink
L RI
R PC
R oute
V M
b it
b fd
e gr
o g
v pc
Ġa vailability
in c
re plication
Ġs ummary
ic ates
en se
Ġf ails
Ġp ower
al y
ĠC h
co pe
ĠB ecause
ĠR ACL
20 26
93 36
Ġh app
Ġex amples
ĠO r
ĠIn terfaces
op en
end point
Ġser ies
ub les
Ġle g
ÂłÂłÂłÂłÂłÂłÂłÂł ÂłÂł
Ġappl iances
tr affic
Ġ17 92
Ġcluster s
dc n
VNI s
Ġauto vni
Ġident ifies
Ġshutdown mtu
Ġautom ated
ĠRo le
ĠSh aring
Ġgener ate
On ly
En able
Ġadjac encies
Ġcho ose
grad es
ĠRes ources
Ġintegr ated
ĠIS IS
ĠAdvertise ment
ĠReg ions
ĠSubnet s
Ġflood ing
Ġminim um
Ġupd ates
Ġder ived
Ġrele vant
Ġsuccess ful
block ing
Ġfo und
Ġer r
document ation
6 08
A G
L earn
g ged
n ce
Ġ 94
Ġ --------
Ġ very
re ach
er o
Ġs uppression
ic k
Ġf ile
Ġp age
Ġin coming
Ġm and
Ġ10 1
Ġ10 3
ĠT arget
ĠN LRI
ad d
il io
ĠP TP
ĠB ias
id m
20 6
Ġnetwork ing
pl it
ĠU tilization
to re
Ġ4 9
sp ecific
Ġper mission
Ġconnect s
ĠG uide
Ġr ight
14 5
ĠAS M
23 01
Ġmore about
ĠEn cryption
ĠNAT Sample
ior it
av ig
Ġ13 5
Ġphysical ly
olut ions
Ġind ust
Ġtyp ically
DC GW
Pro tocol
ĠComm and
Ġpers pective
Ġsess ion
Ġsyn c
================ ================
ĠExt ension
coun ting
Ġsche me
Ġbel ong
Ġsever al
1 12
7 1
8 6
C alico
D N
S ubnet
a ut
a mental
g ence
s r
v m
in al
Ġs l
ic ense
Ġf ew
nd ezvous
al ive
ĠS yn
ĠS rc
ĠI CMP
ĠA vailability
Ġre co
ĠC N
ĠP assword
âĢ Ķ
Ġus age
ĠR T
Ġv isibility
Ġen cryption
Ġex ecut
che str
und amental
Ġ9 0
Ġun til
Ġnot ification
Ġwhe ther
abl ing
ĠRout es
ĠRout ed
Ġcontrol led
of f
ĠQ u
ĠConfig uring
Ġtrans it
ĠAl so
17 92
ĠK ubernetes
Ġdistribut e
ĠLog ging
Ġincre ases
Ġtrack ing
ele ctive
ential s
ho ot
Ġoper ating
Ġadministr ator
Ġadministr ators
ĠAdd itional
ĠOperation al
Ġpract ices
Ġintrodu ced
ĠIR B
Ġchallenge What
ĠInst all
Rout ing
ĠSecond ary
Ġsignific ant
ubles hoot
reach ability
D CN
D NS
O ne
S N
T emplate
a x
g an
p fmc
r ied
r hoso
s m
t on
u le
Ġ !
or ld
Ġf ul
Ġf urther
Ġp at
Ġp fmc
le ar
Ġ1 11
an ned
us iness
ar ch
ĠS CP
ĠT ree
ĠA t
Ġof fer
ĠL EAF
âĢ ĵ
ĠD istribution
ĠM em
ĠF TE
om ation
16 2
ĠO ne
ĠIP FM
ĠIn tra
um b
ĠH at
13 1
Ġ5 12
Ġ9 04
bo x
Ġ65 106
Ġhost ed
ix ed
Ġ25 6
ens ity
Ġsend ing
Ġ7 01
22 2
Ġevpn address
Ġ15 0
ĠTag gged
os en
ĠK indle
Ġsystem s
Ġthere by
Ad vertise
ĠOB S
hor ized
Ġcar ried
allen ges
ynam ically
Ġloc ations
Ġi P
Pro fil
ff ers
vant ages
Ġequ ip
ĠStat istics
Ġtechno logies
evpn vni
Ġrequest s
Ġtim er
ĠAdvertise ments
ĠMS D
De vice
Pr iority
Qin VNI
ĠEd ge
open config
Ġindust ry
5 9
9 01
9 02
I nt
P er
c am
r ix
s up
t ag
Ġt re
Ġs olutions
en e
it i
Ġf ive
ro ubleshoot
Ġb an
Ġb its
Ġin put
an ular
Ġto ol
Ġto ols
ac ed
Ġm ask
ĠV iew
ĠS ample
ĠS ession
ĠN on
ĠA C
Ġre ndezvous
ĠC ustom
ĠP arameters
ĠP hone
Ġ2 001
ĠE P
Ġad vanced
id ate
un ning
Ġl ast
Ġex peri
Ġst ates
Ġmult it
Ġsp anning
ve red
ĠH ead
14 2
ĠW AN
ribut e
board ing
Ġcap ture
ĠRP s
128 00
Ġthere fore
Ġbut ton
200 2
Ġtyp ical
Ġconsist ent
Ġincre ase
Ġint elligent
kn ow
only no
ĠSS X
Ġcorre ct
Ġcontain s
Ġtim es
Ġisol ation
Ġisol ated
ĠSim ilarly
Ġeas y
Bu ilding
Ġconver gence
ĠRequire ments
2 12
2 23
A ss
B LK
D eploy
F S
G C
M GMT
Q SFP
T otal
W DM
c luster
Ġs it
Ġp anel
Ġin bound
Ġin herit
ac tion
ĠS W
ĠS AN
ĠC o
ĠC ent
co st
ĠP ath
ĠP ACL
ĠP SN
ĠF rom
st ream
un iform
ect s
10 7
10 9
16 5
ap ter
Ġtr igg
ant ity
Ġcom put
form ance
tern ative
Ġr ules
Ġpre pend
ĠâĢ ĺ
tr ilio
64 2
ĠSp ecific
Ġhe alth
Ġ23 02
St andard
Ġspecific ally
ĠEx amples
Ġlog ging
Ġadvertise ments
ĠĠĠĠĠĠĠĠ ĠĠĠĠ
feren ces
ĠSGT s
urpo se
Ġorigin ated
ert ain
Ġbo x
ron t
Ġ64 642
ĠCl ient
ĠMS DP
Ġcoun ter
Ġprovision ed
Ġcrit ical
ĠNet App
ĠAppl iance
ĠRest ore
Ġalgorith m
Ġ6501 1
Ġproble m
Ġsit u
6 2
7 8
B AC
E N
F irewall
I nd
L oc
M M
M anagement
P re
c ase
d efined
f lows
l ier
Ġt emplates
en ance
Ġ1 12
an ycast
Ġm ade
ĠV er
ĠS ub
ĠS tore
ĠT elemetry
ĠT opology
ĠA ud
ĠA ction
Ġcon st
ĠL imit
Ġ2 04
ĠR ESTCONF
11 4
Ġaut hent
Ġdef ines
ass is
vrf ip
so le
Ġch annel
Ġbu ffers
cap ability
Ġma kes
ĠSG s
ator y
Ġdirect ory
Ġwork er
Ġreach able
Ġfailure s
Ġele ction
Ġlat er
Ġoptim ized
ĠSP IN
Ġcontain er
Ġrel ated
Ġintegr ation
Ġcol le
Ġbas ic
ĠAPI s
ref lect
ĠFeature s
Ġhig her
gan ization
umb ered
1 93
2 19
4 1
D B
D s
E nd
F T
F lags
F ollowing
M atch
R A
a ke
d riven
e am
f in
n at
v i
Ġ udp
Ġt cam
on se
or iz
Ġs n
it ing
Ġd isco
lo re
al cul
ac y
Ġm icro
as ing
ig r
Ġw ord
Ġw rite
ar ies
ĠS yslog
ĠS elective
Ġof fic
Ġfor ce
ĠL HR
ĠF irst
ol um
ĠR HOSO
ric t
Ġv is
Ġcom b
Ġse en
13 9
Ġr hoso
Ġap pe
Ġ5 8
Ġ9 01
In troduction
14 3
ĠRout ers
pro xy
pro ximate
23 3
Ġwhere as
âĢĿ .
bl s
St ack
ĠEx p
Ġdet ermin
dc i
Ġtrans fer
sh ip
Ġ16 1
Ġident ified
ĠGateway s
Ġcre ating
Ġco unt
Ġj ust
ĠOpen Stack
Ġact ual
Ġgener ated
Ġgo ing
Ġoption al
Ġform at
Ġmechanis ms
Ġrepresent ation
Ġmod ern
Ġref lectors
str ap
Ġhand ling
Ġqu er
Ġmanag ing
Ġstart s
Ġredu ces
Ġmem bership
Tr affic
Ġintrodu ces
Ġlow er
Ġprogramm ed
Ġgre en
rm ac
encapsul ation
Ġrecommend ation
ĠINF O
Ġear lier
ĠPers istent
ĠEther Channel
Ġful ly
* ,
. (
5 8
5 00
7 0
A m
D efault
E P
L B
N AM
S ystem
r ack
s cp
t he
t ics
v xlan
Ġt ask
he re
en abled
Ġp ack
Ġp riv
Ġ1 20
Ġn et
Ġm gmt
Ġm onit
ĠS ingle
ĠI OS
ĠA c
il ion
Ġe l
ĠL earn
ĠE lephant
ĠF air
ĠF ull
ly ing
16 7
Ġex h
Ġ3 8
Ġor ganization
ĠIn frastructure
end ix
um ing
12 6
loc ated
igh ted
vrf no
ond s
ifferent iated
ĠMAC sec
Ġpl aced
AP I
ĠEn gine
Ġma king
av ilion
Ġ18 0
Ġcre ates
Ġassign ment
Ġsecond s
Ġcomple tion
Ġresp ons
Ġrepresent ed
Ġref lect
Ġvers ions
Ġtarget s
Ġdisplay s
Ġz one
ĠNext Gen
stat ic
inter val
med iate
Ġbp du
aly tics
Ġerr ors
Ġmand atory
Ġpat tern
Ġappe ar
NAM E
- <
2 11
2 17
C reate
I TCH
M VPN
N AT
d is
d og
i fac
n v
n ess
s crib
u ck
he ad
er ia
Ġd r
Ġd ual
Ġn tp
ĠS TP
Ġre load
ĠC VR
ĠL abel
ĠB ased
ĠB roadcast
id el
ĠR PC
20 7
Ġl ess
Ġl ength
16 3
Ġ3 1
Ġ3 9
ĠO EM
Ġas p
Ġg lobal
Ġ4 1
int c
Ġ9 02
14 7
Ġ65 102
Ġup stream
vrf vni
Ġappl iance
ser ve
ĠTr ap
23 02
ens ions
Ġadd ing
Ġits elf
99 99
Ġdoes n
ĠK B
ĠAut horization
Ġutil ized
Ġutil ize
Ġadmin istration
cep ts
pr ise
Ġdown load
ĠScenario s
ĠAp ollo
Ġcustom ers
ĠRed und
xx x
gramm ability
ĠBack end
Ġstandard s
ĠLink s
ĠPrefix es
Ġhand le
Ġexch anged
Ġredu ce
Com pute
Ġrack s
Ġoc c
bal ance
Ġ3000 4
Ġgr anular
Ġpartic ip
Ġbas is
Ġ37 00
sn mp
ĠGu est
Aut hentication
Ġcond itions
Ġconsum ption
Ġsummar izes
rea k
Add itional
Profil er
ĠSW ITCH
5 0000
C l
N et
R L
V E
Y ou
l en
o unt
p or
r up
s ive
s cale
t unnel
v ation
w ide
he et
re v
Ġs ince
Ġf ut
Ġf ault
Ġf ixed
Ġc ertain
Ġp h
Ġd ist
Ġd uplicate
Ġd ynamically
Ġm aster
Ġm igr
Ġw rit
ar ac
ĠN avig
ĠA nd
ĠP OD
ĠP anel
ĠD irection
ĠF lex
ĠR ack
Ġpro ject
and box
Ġsh ort
Ġ5 9
ÂłÂłÂłÂłÂłÂłÂłÂł ÂłÂłÂłÂłÂłÂł
64 00
ĠOp er
Ġperform ing
Ġdet ection
Ġtrans mission
Ġ15 3
Ġ13 00
Ġ18 00
ched ul
Ġmatch ing
ĠConnect ion
Ġcomp ared
AS M
mult icast
ĠAp plication
Ġlimit ations
Ġtunnel s
ĠUp date
ĠSe lector
ĠLoopback s
Ġfac ing
Ġ6500 2
Ġz ero
Ġdec ision
Inter net
Ġindependent ly
Ġsele ctive
Ġ47 89
endpoint s
Ġconst ruct
lore r
Ġfut ure
4 7
7 6
A RP
E CT
I m
L s
R AC
R ADI
T opology
U SP
V ER
l ib
m art
n T
p aper
r s
s cription
t ive
w ith
Ġ ess
Ġt roubleshoot
Ġa ware
Ġf iles
an sp
Ġm ob
Ġm ight
ĠS ources
ĠT unnel
ĠI ris
ĠC S
ĠL ist
ĠD F
ĠB o
ĠB andwidth
ĠE very
iv es
Ġde velo
Ġad vantage
ol ve
im in
16 9
ex ist
ex cluding
Ġpro t
Ġas ymmetric
ĠU sed
ĠU RL
ach ine
Ġ4 3
net conf
nt p
Ġ9 00
back end
fr ont
ĠNetwork ing
14 4
Ġred istributed
ĠSt ep
ĠPro tection
Ġch assis
Ġ8 8
Ġ8 00
Ġhe nce
42 72
MP LS
Ġadd s
ĠLoc ation
config uration
Ġind icates
Con nect
ĠMode l
Ġneighbor s
Ġmulti hop
ĠOn ce
ĠIdent ifier
Ġint ended
Ġorigin ating
Ġretr ans
ĠPo int
Pro d
Ġref lector
Ġ64 00
Ġ3000 3
ĠSupport s
Ġ6500 4
Ġcontin ue
Ġcontract s
forward er
Ġremo ved
135 68
Ġcrit eria
Ġsele ction
Ġexpl ained
ral ized
Ġmet ric
Ġlead ing
Ġsmall er
Ġexceed s
Ġexpans ion
go ing
Ġinterest ed
Ġprefer red
Ġ135 68
sr v
Ġoffic e
RADI USP
ansp arent
! !
) -
F rom
P lease
R E
S upport
e PBR
i vers
r t
r id
v en
Ġs low
en eration
it ig
it ive
Ġp lease
Ġp hone
al low
us er
Ġm odes
Ġm uch
Ġw atch
ĠC ode
ĠC ase
ĠC CL
ĠC heck
ĠC ertificates
Ġ( *,
Ġ2 03
ĠD at
ĠD ay
ĠB FD
am p
ĠM ob
ip les
id er
id irection
Ġh aving
pl ies
Ġaddress ing
ĠIn tegr
op tim
ib er
ost ure
Ġ6 2
Ġap p
Ġun known
ide o
ĠMult ip
14 99
Ġdeploy ing
Ġhost ing
vrf address
Ġspec ial
Ġch osen
Ġch allenges
Ġaccess ing
red entials
ĠLo ad
ĠLo ss
Ġres ili
Ġro b
Ġman ipul
Ġlog in
Ġ13 4
Ġwork flows
Ġautom ate
Ġprocess ing
Ġcaus ed
Ġretr ie
Ġrepresent s
Ġmo ves
ĠWh ile
Ġfail ed
RI B
Ġ95 00
ĠEndpoint s
Ġcontin ues
Ġfilter ing
Ġcond ition
gu ard
Ġdistinguis her
ĠScal ability
ĠUs ers
hom ed
iorit ization
ĠAdditional ly
ĠSPIN E
Ġbpdu guard
Ġocc up
arac ter
idirection al
2 26
D RAC
E ndpoint
F ailure
L DAP
N TP
P IP
S uper
a lo
d ig
e BGP
g uide
i able
i Band
k i
l ite
n ost
s oc
t m
w ise
Ġ .
Ġt eam
er ved
at rix
Ġs il
is k
Ġf ast
Ġf undamental
Ġc ode
Ġc tm
ro id
ro be
Ġp ar
Ġp assive
Ġ1 15
Ġ1 14
Ġ1 17
Ġb ls
Ġd up
Ġo ur
ĠS M
ĠS ince
ad i
ĠC ertificate
Ġcon vention
ĠL ED
ĠP assive
ĠD ell
ĠD ynamic
ĠD iag
ĠD istributed
ĠD LB
ag ed
ĠF IO
ĠF HR
Ġde m
ot ion
ot strap
Ġus ually
ĠR end
Ġl ay
Ġl ive
fac ing
Ġex cept
Ġst e
op er
TE R
Ġcom es
ers hip
Ġ4 2
ĠCon vention
Ġse lector
ĠH SM
11 00
Ġ5 1
Ġ5 3
Ġ9 100
Ġ9 08
Ġport ion
ĠW e
Ġ65 141
Ġred istribution
Ġout bound
tr acking
du le
pro tocol
ĠSp eed
ĠTr ust
gment ation
Ġcluster ing
Ġ8 02
ĠOp tion
Ġ* *
Ġ15 4
Ġque ues
Ġident ify
Ġcommunication s
Ġhow ever
Ġlearn s
htt p
ier arch
09 6
Wh ile
Ġfunctional ities
Ġgo al
xx xx
On ce
peer ing
miss ions
Ġpers on
Ġme et
Ġme as
Ġredu cing
work ers
Ġdisplay ed
ĠTh ird
ĠHTTP S
ĠHTTP s
Ġeff ective
ĠINF RA
Ġobject s
cord ing
Ġagain st
Ġunn umbered
replication mcast
Ġ94 08
ĠCN P
Deploy ment
fin iBand
oriz on
idel ines
RADIUSP robe
Ġrob ust
nost ics
ĠDiag nostics
ĠRend ezvous
A L
B ased
E E
E CMP
F w
L ast
R es
U ST
X D
b ase
c or
d ay
k en
p b
p are
v endor
y ang
Ġ know
en y
Ġc redentials
Ġp ass
Ġ1 30
al le
Ġm ill
Ġm itig
ĠS andbox
ĠA AA
ĠB ase
ĠB oth
am s
ag er
ĠF T
ĠF EX
un aware
93 400
Ġv ideo
Ġst ructure
if e
ĠIn finiBand
op ing
ĠU S
olic ing
ĠCon t
ĠG b
ĠG bps
Ġ5 2
Ġun ified
Ġup grade
Ġloopback s
lect ed
Ġspec ify
08 00
ification s
Ġ15 2
17 2
DP P
Ġwork s
Ġshutdown vrf
Ġencapsul ate
ĠĠĠĠĠĠĠĠ ĠĠĠĠĠĠĠĠ
ĠOver all
Ġco ver
Ġcaus ing
Ġconsist ency
Ġed it
Ġincre asing
class ification
ym metry
Ġoper ate
ĠIS Ls
ĠAdd ing
Ġ26 2
Ġprob ing
Ġprogramm ing
Ġdefin ing
Ġcarry ing
Ġgr ant
Ġsynchron ization
Ġsynchron ize
Ġoccur s
Ġbring s
Sec ure
Ġfact ors
ĠClass ic
Ġattach ment
Advertise ment
Ġvis ual
Ġpattern s
Ġess ential
adi us
3 9999
9 0
B y
M I
O ver
Q DN
Y Y
c ial
f rom
l ated
l imit
n q
p acket
z en
Â ®
Ġ #
Ġa im
in st
Ġs uper
Ġs cope
Ġf ind
Ġc all
ro zen
Ġp ut
Ġp lan
le ly
Ġo cp
ac s
Ġm d
Ġm edia
as n
Ġw ire
ĠS ymmetric
ĠT OR
ĠN umbers
ĠN ew
ĠC ases
Ġcon sole
ĠP urpose
ur ging
Ġ2 24
Ġth us
ĠD E
ĠD WDM
ĠM ac
ĠM enu
up le
id ir
ate gor
ĠR et
ĠĠĠĠ ĠĠĠĠĠĠĠĠĠĠĠ
Ġh ierarch
16 4
Ġv endor
Ġex it
Ġlo gs
che dule
Ġst ack
Ġst eer
25 6
Ġg row
RF C
ĠU I
ib r
Ġser ve
Ġ4 5
Ġ4 6
Ġse ed
Ġse lectors
po sed
Ġac cording
Ġr at
Ġ9 6
Ġpre ced
ep alive
Ġcomm only
In fra
Ġappl ic
Ġsupport ing
Ġadvertis ing
ĠSp ec
ĠSp arse
ke y
ĠMulti Site
ĠQ in
ĠLoc ator
Ġdet ected
ĠCom ments
Ġinter val
sh ared
Ġatt ack
ĠRP M
andw ich
app ing
one view
Ġ15 7
Ġman ually
ĠConfiguration s
Ġso lely
ĠK VM
ĠAut omation
ok ia
Con sid
---------------- --------
Ġhigh ly
Ġele ments
Ġexp and
Ġ14 3
ĠLog in
Ġsub ject
Ġsub sequ
eed back
Ġdown link
AS N
Sp ines
ĠVM s
Ġfield s
Ġmaint aining
ÂłÂłÂłÂłÂłÂłÂłÂłÂłÂłÂłÂłÂłÂłÂłÂł ÂłÂłÂłÂłÂłÂłÂłÂł
ĠInter net
ĠCL OS
Ġrepresent ing
ĠUp load
ĠStat us
Ġsequ ential
Ġinit i
Ġstore d
Ġam ount
Re ference
Ġchang ed
Ġdropp ing
Ġtransmit ted
Ġproper ly
ĠWork er
Ġassum es
ET F
Ġ655 35
Ġstud y
Ro CE
Ġpropag ated
Ġreas ons
Ġcomplex ity
inc iples
ĠSyn chron
ĠQu antity
iti ator
ĠCustom er
ĠEP L
Ġcolle ctive
Ġpriv ile
Ġrespons ible
Ġappear s
Profiler RADIUSProbe
ĠAnd roid
Ġmob ility
Ġste ered
alle l
" >
. )
3 01
: :
C CL
D escription
D SCP
I R
R C
S im
d rop
f iles
l ation
m an
s uch
u x
y ond
in ux
he s
on ent
on th
or g
Ġs ymmetric
es h
is hed
Ġc lock
Ġc ache
Ġc alcul
Ġ1 16
Ġb ind
Ġn v
Ġm onth
Ġw ide
ation ship
ĠS ome
ĠS uppression
Ġ10 5
Ġ10 8
ĠT bps
ĠN ote
Ġre w
ĠL ength
Ġ2 05
ĠD o
ĠD is
ĠD estination
ĠB l
Ġbe yond
ĠF amily
id ated
id den
ect ing
Ġl icense
Ġh old
Ġtr ansparent
Ġv olum
Ġen ough
ist ory
ĠO IF
Ġlo ops
25 3
com e
Ġg uide
ĠIn troduction
op ul
ir ing
Ġcom pl
sp eed
Ġac counting
11 11
Ġun less
ang es
Ġle gs
Ġle ave
Ġswitch ing
th ough
Ġrem ain
ĠSt andard
ĠSp ace
ĠSp anning
ĠSp anned
Ġ8 9
ĠRe write
Ġpermit ted
ĠEx plicit
ens h
Ġ7 4
Ġres ource
ĠAl ias
ced ure
ĠDesign ated
Ġnumber ing
ĠAn alytics
Ġ15 1
Ġsim ply
Ġ13 7
Ġgateway s
fw d
par ams
200 1
Ġutil izes
ĠMode ls
name if
Ġrun s
Ġ00 01
Ġtrunk switchport
Ġdes ired
ĠInter connect
ĠDet ection
Ġmo ved
epend ing
ĠSe e
Ġrel ationship
Ġadministr ative
Ġdepend s
Ġaggreg ate
ĠIGMP v
Ġ202 3
Ġenter prise
Ġplace ment
Ġmark ed
Ġpod s
SS H
Ġenh ance
Ġtra vers
Ġhapp en
Ġsuccessful ly
EN T
ĠExp lorer
Ġel imin
Ġorganization s
ĠRedund ancy
ĠFlex ible
Ġapplic able
4 4
> -<
A vailability
A tt
H igh
H ardware
H ermes
I GP
I dent
K ey
K DD
M aximum
O f
P acket
S NMP
S yslog
S plit
T RAP
Y S
c le
f t
h idden
l ication
m at
m ore
r int
s outh
t ifac
u ep
v is
w est
w here
Ġ ,
Ġ Âł
Ġa ud
at ibility
Ġs yslog
Ġc ard
Ġp us
Ġb und
Ġb usiness
Ġd ensity
us ion
Ġm sd
ĠS ER
ĠS DI
ĠT ech
ĠA pp
Ġe ast
ĠP AN
ĠP BR
ur able
Ġ2 25
Ġ2 45
ĠD irect
ĠB L
am less
ĠE X
ĠE TRAP
ot es
ate g
ĠR R
Ġl icensing
93 108
Ġh our
ap h
ap ers
Ġex plicit
ist ered
ĠO CP
and idate
com pl
Ġmult ip
ign ature
---- --
um n
Ġ6 7
Ġse amless
12 3
ĠH and
ĠH ermes
ĠH MM
ĠH orizon
Ġac compl
yp er
Ġrequ iring
Ġover head
Ġle aving
15 7
15 99
Ġim mediate
14 01
ĠW AR
Ġ65 000
Ġ65 142
Ġrem ark
Ġrem ains
no oping
mt x
Ġch apter
âĢĿ ,
red st
ĠQ ue
Ġsend ers
Ġinclud ed
Ġdis abled
yn c
vlan s
Ġx ml
ĠCluster s
Ġreg istered
Ġhead ers
Ġlevel s
App endix
Ġrest ric
Ġsub set
subnet s
Ġta ken
Ġlat est
ĠOSPF v
AS IC
Ġgener al
Ġconsid er
Ġpresent s
Ġref ers
Ġillustr ative
37 55
US TER
ĠAr tifac
Ġoff set
ĠTrans lation
ether type
Ġsimpl ify
Ġ6500 3
Ġsignal ing
Block ing
Ġeas ier
ĠPer formance
indow s
ĠMan ual
ĠMan ager
sn ip
Ġproper ty
Ġupd ated
Ġtransl ated
Ġfocus ed
ĠCap acity
Red irect
Ġhighl ights
Link s
ĠOr chestr
Ġbelong ing
Ġexperi en
Loc al
Cl ass
front end
ĠLoss less
dig est
Ġdup lication
Ġlay ers
ĠGb E
ĠQin Q
ĠSynchron ization
uep rint
Ġmsd p
Ġxml ns
3 000
B E
E ast
I B
N G
N on
P ub
R T
S cal
T ime
U ser
] :
a w
a ust
d b
e vel
l ayer
l ash
l ived
m ask
p ass
p apers
s ens
u ed
Ġ ig
Ġt iles
Ġa ir
re pbr
it ed
it able
Ġf am
Ġf iber
Ġc ards
Ġc ertificates
Ġ1 100
Ġ1 27
Ġd ia
Ġin cor
al k
al se
Ġn ote
ĠV TY
ĠT AC
Ġre ar
Ġre port
Ġre cord
Ġcon f
Ġcon sequ
Ġe m
ĠL OU
ĠL ear
ĠL inux
ĠD N
ĠD ate
ĠD omain
ĠD ST
ĠD elay
ĠM anage
ĠF ront
ĠF eedback
un it
Ġtr aining
fac t
Ġen gine
Ġlo st
Ġlo op
ec ial
qu al
ir m
se e
Ġser ial
ail ed
Ġ4 4
---- -
ĠCon s
12 9
po site
ĠH e
11 8
Ġr p
Ġ9 7
Ġne ver
Ġdep th
Ġpre d
Ġop posite
Ġwh ite
32 1
Ġim ages
th reshold
fere d
ĠAS A
Ġup grades
cl ip
Ġdesign s
Ġch aracter
Ġ7 7
Ġ16 2
CL I
ĠY ang
Ġ13 8
Ġclass ify
per mit
pre fix
Ġreg ular
Ġco exist
ĠDeploy ing
Sp ecific
Ġact ing
Ġlookup s
Ġden ied
val id
Ġapply ing
IN G
Ġqu ick
Ġdescrib es
Ġrepl icated
Ġthreshold s
sec ure
Ġmem bers
Ġcol umn
Ġdecapsul ation
Ġlever age
Ġinterconnect ed
Ġprogramm ability
An ycast
ĠInt elligent
Ġgre ater
ĠInst ead
De v
ref lector
Ġsummar ized
sub scription
white papers
Ġdel iver
Ro le
Ġtra verse
Ġhash ing
aut horized
orld wide
ĠMem bership
Ġequip ped
Ġban k
Ġmultit enant
ĠHead er
Ass uming
Ġtask s
Ġexh aust
allow as
Ġresili ency
pb repbr
ĠTech no
Ġig mp
Ġdia log
ĠLear ning
" ,
) (
) *
0 94
4 97
8 42
9 08
A c
A rm
D E
D ifferentiated
F ile
F TP
K indle
L R
M DT
P T
S A
T elemetry
U DI
c n
c andidate
e h
e ac
f m
i ers
i um
l ers
m anagement
p ki
r p
r ate
s w
t ies
t ier
v ision
w an
w ner
x ls
y cle
ĉ ĉ
Ġ ndfc
Ġt er
in ally
he f
he rent
re lated
on y
er nel
Ġs ymmetry
Ġf ree
Ġc ru
Ġ1 24
Ġ1 18
Ġ1 19
Ġd on
ac ing
ac acs
ar ant
ĠV ACL
ĠV endor
ĠS DC
ĠS chedule
ĠS andwich
ĠS ony
Ġ10 4
ĠC OM
ĠC ards
il ient
Ġis e
Ġe Pub
ĠP alo
ĠP urging
Ġ2 21
ĠD ie
ĠD SCP
ĠD uplicate
ĠM a
ĠM ore
ĠM RIB
ĠF ree
ĠF ield
ĠF lags
ĠF QDN
ch anged
Ġad vantages
st andby
id ed
ate ll
ĠR ec
93 4
Ġh sm
16 00
Ġtr ust
Ġal ign
Ġpro m
Ġpro gram
Ġ3 97
ĠO F
ĠO S
che ck
Ġst rict
Ġconfig urable
el ated
ant om
ĠCon tract
po s
ĠH ash
ĠH BM
Ġac l
24 5
ĠG ener
Ġr isk
Ġap ps
Ġ9 1
Ġun iform
ĠSer ial
ĠAd vanced
ĠAd vantage
ÂłÂłÂłÂłÂłÂłÂłÂł ÂłÂłÂłÂłÂł
th rough
ĠW indows
Ġ65 30
Ġ65 201
Ġ65 301
Ġout going
ĠSt ack
ĠSt ructure
30 4
ser vation
Ġdestination s
Ġext con
Ġext ensions
St art
Ġcons ol
Ġdet ect
ĠAl location
Ġ16 0
Ġ16 8
ĠNX OS
Ġob t
Ġ15 5
Ġ15 9
Ġ13 3
Ġ13 000
TC P
Ġimport ed
Ġdistribut ing
Ġvirtual ization
ĠConnect ed
Ġcomp onent
Ġ14 0
Ġ14 1
Ġ14 9
Ġsepar ation
Ġ24 6
Ġsub scrib
Ser vers
aramet er
Ġincre ment
ĠDeploy ed
Ġcar ries
Ġi DRAC
Ġresp onse
Ġconsid eration
ĠFailure s
Ġ200 2
Ġmaint enance
Ex plicit
ĠBu ilding
ĠComm ands
ĠVPN s
ĠPr iority
ĠOut side
Ġillustr ated
En abling
eg inning
Ġevent s
greg ation
ĠNo v
ĠSystem s
Ġsimpl ifies
84 43
Ġeas ily
Ġprevent s
Ġjoin s
Admin istration
Ġexist s
Ġeff ect
XXXX XXXX
Ap proximate
OM ER
ĠAppl ied
Ġday s
Ġear ly
Ġsimultaneous ly
Ġexpans ions
Ġbal ancing
Ġreas on
Ġfacilit ate
Ġhapp ens
Ġleg acy
vm otion
Ġsignificant ly
ĠiP ad
ĠiP hone
Ġcorrect ly
Ġsitu ations
ĠAction s
ĠLimit s
Ġmonit or
Ġwrit ing
ĠNavig ation
ĠBo otstrap
ĠMob i
UST OMER
Ġvolum e
ensh ift
Att ribute
ĠSER VER
ĠArtifac ts
Ġair flow
eac c
Ġcru cial
atell ite
Ġ397 4
ĠHash ing
1 000
4 6
B order
B ecause
B eginning
C an
C ustom
F ast
G b
I OS
N V
N o
O r
P TP
Q oS
R emote
T RM
U L
U P
c i
c ision
c ise
f fix
g in
l at
o T
r unning
s ence
t uple
v irtual
w orth
Ġ '
Ġ ÂłÂłÂł
in cluding
re st
Ġs cre
es p
it le
Ġc alico
Ġc ables
ro tocol
Ġp lay
Ġp rivate
Ġ1 13
Ġd scp
Ġd ci
Ġin ser
ac ef
Ġm is
Ġm cast
ĠS amples
ĠS cope
ĠT Am
ad a
ad emarks
ĠI I
ĠI nd
ĠI ETF
Ġis is
Ġcon vert
Ġcon cur
Ġ2 26
ĠD ifferent
ĠD raft
ĠB as
ĠB IOS
ĠM ess
ĠE ss
ĠE SG
ch o
om ic
ĠR BAC
20 25
Ġl ibr
Ġal ternative
Ġen cod
Ġpro files
Ġ3 01
Ġlo ok
Ġst it
Ġst ability
el ine
01 00
ĠU TC
to ols
Ġcom e
ore d
Ġ6 3
Ġ6 9
24 47
ĠG r
Ġ9 9
bo ot
Ġport f
Ġport al
Ġwh o
ĠW orldwide
Ġup on
cl ient
ĠVNI D
ef ore
ĠSt andby
Ġ17 9
04 8
ĠRe ferences
gr p
ocu ments
ens ible
ĠBlock s
## ##
Ġ7 6
Ġcont ent
Ġres olve
Ġinter oper
Ġ15 6
ĠY our
av y
ĠID s
Ġwork ing
ĠProtocol s
Ġpoint ing
ĠX ML
plement ation
Ġarchitecture s
Ġco vers
ĠTo ols
Ġ14 6
Ġimplement ing
ĠOn line
Ġunder lying
Ġcar ving
Ġseparate ly
ĠSVI s
ĠSS M
Ġgo es
Ġgo ver
Ġload ed
55 3
Ġmo ving
ĠSe gmentation
Ġoper ates
Ġmanag er
Ġstream ing
Ġintro duction
ten ancy
Ġstore s
Ġsimpl ifying
Ġbrid ge
Ġbrid ged
Ġcheck s
Ġsignal s
An y
Ġord inal
Ġrespective ly
Ġcent ralized
Ġwant s
ĠDrop CloudScale
Ġ36 00
Ġ35 0
Ġaction s
encapsul ates
Ġbenef it
Ġcop y
Ġcop ies
Ġrele ases
Ġreplace ment
Ġstr ong
Ġfact or
Ġtermin al
stat istics
Op eration
ipul ation
Ġhighl ighted
Int egr
ĠAC I
Ind ividual
dis able
Ġmigr ation
chedul ing
Ġtroubleshoot ing
Ġoccup y
Ġsil ent
ĠCont ents
opul ated
Ġincor por
Ġter ms
Can ada
NV Me
worth y
acef ul
Ġconcur rent
ĠMess age
7 11
9 09
B L
C D
C ent
C ap
C OM
D et
F urther
H OSP
M D
M ode
N A
N OD
Q L
R DMA
R BAC
S X
T AG
b b
b one
d esign
d elay
h p
i od
i our
i ency
k er
l ike
p assword
p tp
r a
r ing
r ay
r ange
r pc
s ure
s upport
s atellite
u ous
w eb
Ġt un
Ġt enancy
in herit
he ll
re ce
on es
Ġs up
Ġs nooping
ic t
is ions
Ġc lo
Ġc able
Ġc lear
Ġc ategor
ro ker
Ġp ip
le ction
Ġ1 64
Ġ1 42
Ġ1 45
Ġb reak
Ġd ivid
Ġin ject
Ġin fo
Ġin herent
Ġo wner
Ġn ames
Ġn aming
Ġw a
ĠV TP
ĠS eed
ĠT H
ĠN okia
af e
Ġof fered
Ġcon cepts
ĠL icense
ĠP od
ĠP lease
ĠP VLAN
ĠP ower
ur al
âĢ ľ
ĠB roker
ĠM gmt
ĠM atrix
ĠE nt
ĠE qual
ĠF urther
rout ed
ip p
ĠR O
ĠR adius
Ġl ack
93 48
Ġh tt
Ġpro cedure
pl ace
Ġlo ck
Ġst age
ir cul
94 00
Ġser ves
Ġsp read
Ġper iod
um er
Ġ6 6
Ġ6 8
24 3
24 6
11 7
11 10
NI Cs
Ġr ates
Ġ5 7
Ġ5 01
Ġun it
Ġun changed
Ġne ighb
Ġover l
Ġle t
15 0
15 00
Ġuse ful
14 0
Ġ65 200
Ġ65 105
Ġ65 203
Ġup load
vrf member
vrf service
Ġ25 0
26 4
Ġch ain
Ġ17 0
Ġ17 5
ĠRe view
Ġsu fficient
Ġsu itable
Ġpart n
ĠLoc ations
ĠEn capsul
ĠEn abled
gest ed
Ġma x
Ġ7 0
29 9
FX P
Ġthrough out
con t
Ġ16 7
CL USTER
Ġ15 01
av es
Ġident ifier
Ġ13 1
Ġ18 2
Ġ18 3
Ġ18 5
Ġuser name
Ġcomp atibility
ER S
ms g
Ġ14 4
97 00
ĠHost s
hor ity
Ġ24 0
Ġ24 1
Ġint ake
Ġj ob
Ġgener ates
Ġcor ner
Ġlimit ation
ĠNot ice
Ġoptim ize
Ex t
Al to
ĠProv ides
Ġadj ust
ĠForward er
ĠWh at
Ġhand off
eb gp
Ġrel iable
ĠRes p
led ge
Host name
Ġlever aged
ĠSupport ed
LO G
PS N
Ġminim ize
Ġbehav iour
Ġspeed s
Ġread FIO
Ġsynchron ized
Admin istr
istinguis her
ĠNet Flow
Ġcop per
Un aware
Ġassum ption
ili ates
ĠJ oin
Ġtest ing
Comm on
Comm ands
de vice
Ġtrap s
system s
Ġactiv at
Ġactiv ated
ĠUs age
Ġaff iliates
Ġunn ecessary
add r
Ġcomput ing
Ind ependent
Ġwrite FIO
Ġcomb ined
Ġpack ages
Ġdist in
Ġaware ness
optim al
Ġpar allel
Ġgrant ed
ĠDE I
ĠSpec ifications
Ġprivile ges
Ġrew rit
ĠWAR N
ĠOrchestr ator
Class ification
pos it
statistics match
NOD E
ircul ation
Ġneighb our
9 8
A V
A ccess
C lick
D U
E th
F ront
G B
G uide
N E
N orth
O T
P lane
P hysical
P DU
R s
T ag
V AN
V IP
W RED
X E
d d
d at
f e
f ers
f ail
h anced
m a
m em
r ive
v ia
x ml
Ġ ide
Ġt ier
in ing
Ġs amples
Ġs rc
is h
is ter
Ġf e
Ġf aster
Ġf inal
le metry
Ġ1 25
Ġ1 26
Ġb ot
Ġb rough
Ġb idir
Ġin sp
an c
Ġto day
Ġm enu
ab or
ĠS mart
ĠT EP
ĠN ON
ĠN FS
ĠI IF
ĠI oT
ĠA F
Ġcon cept
ĠL ine
ĠL evel
ĠP air
ĠP olicing
Ġ2 32
Ġ2 000
Ġon to
ĠB elow
ĠM icro
ĠE ven
ĠF alse
up les
iv al
ol ved
ĠR TP
Ġl ife
16 6
ap sh
Ġex cess
Ġpro tection
GP O
Ġ3 37
em p
The se
int enance
Ġper missions
Ġac count
13 2
Ġaut horized
ĠG B
Ġpre served
Ġpre sence
Ġleaf s
ĠMult iple
Ġle aves
ĠTr acking
Ġexternal ly
100 2
ĠFor mat
Ġ8 3
Ġ8 4
Ġ8 7
ĠRe plication
ĠRe ference
red irect
Ġ7 2
Ġ7 3
Ġ7 8
Ġ300 4
Ġ16 3
Ġar riv
Ġar gu
te lemetry
Ġlog ically
Ġ13 6
Ġ18 4
TC AM
ind ex
pbr statisticsmatch
Ġappro aches
ph an
Ġcomp are
Ġcomp any
Ġenable mtu
Ġ14 7
tim ized
Ser ies
ffic iency
Ġact s
Ġtrunk spanning
Ġmin ut
val ue
Ġunique ly
cur sive
IN T
Ġqu ite
Ġmaintain ed
Ġdiscus s
Host s
Ġframe work
Ġcol l
Ġmap s
Ġminim al
bu ffer
ĠVal idated
Ġ33 000
ĠPl ace
Ġremo ving
With in
ĠMan ipulation
Ġcoun ters
ĠNumber ing
ĠGu ard
AT A
Ġexpl ains
ĠClass ification
Ġtermin ation
peri od
Ġunderstand ing
Design ing
den y
Ġinvol ves
Ġinvol ving
ĠAtt ach
Ġpotential ly
ĠMod ular
hom ing
Ġfacilit ates
ĠRT T
ĠMem ory
ene ighbor
Ġmultit enancy
Ġauthent icate
Ġsn ipp
Ġdisco ver
Ġdisco vered
Ġph ase
ĠApplication s
Ġconstruct s
Ġdevelo p
Connect ivity
Ġmill ion
Ġhierarch ical
Ġmonth s
Ġelimin ates
Ident ity
ĠMa intenance
Cap able
ĠRO CE
Ġactivat eneighbor
Ġdistin ct
Ġbrough t
apsh ot
Ġsnipp et
/ >
1 16
2 18
5 4272
7 12
7 13
7 15
7 14
8 000
A I
B efore
C U
C IMC
D o
D om
D eny
E very
E ST
F eature
G rid
I ris
L Cs
M onitoring
M nT
N ow
P AN
P air
P osture
R J
R HOSO
S ub
S ince
S rc
U p
V endor
V ersion
Z one
_ <
b ed
c E
c nt
d ensity
d scp
h ing
h antom
j or
m m
p y
r acl
x Grid
ï Ĥ
Ġ nd
re at
re co
on clusion
Ġthe ms
Ġs heet
is ites
Ġf ill
Ġf rozen
Ġp b
Ġp olic
Ġ1 32
Ġ1 48
Ġd if
Ġin band
lo b
Ġm y
Ġm achine
ar ters
ĠS ignature
Ġ10 9
ĠT en
ĠT est
ĠN G
ĠN GM
ĠN MS
Ġre c
Ġre side
Ġre ached
Ġre servation
ĠC A
il dc
Ġcon gested
ĠL B
ĠP hantom
Ġ2 22
ĠD AC
ĠD epending
ĠB eh
ĠB PDU
ĠM et
ĠM ain
ĠM apping
ag ment
ag ram
iv ation
Ġad ap
Ġad op
st art
id ent
un icast
ĠR ep
ĠR elay
ĠR EST
Ġl ab
ap s
ap id
Ġex tra
ist a
ist ic
Ġpro ceed
Ġ3 02
Ġ3 05
ĠO wn
ow ards
qu arters
Ġst ated
25 600
Ġg RPC
el ves
ant age
sp ines
Ġ6 1
po se
Ġby pass
Ġac cur
13 4
13 8
24 8
11 9
ĠG ene
Ġ0 101
Ġ5 5
Ġ5 02
Ġ5 4272
Ġ9 09
Ġun int
ang ing
PC onclusion
ĠNetwork L
Ġim plies
In itiator
14 6
14 8
Ġ65 202
ribut es
Ġhost name
ĠSt art
ĠSt orm
ĠPro gramm
26 1
26 3
OB VAN
Ġ17 1
Ġ17 6
log ging
Ġ8 5
Ġ8 6
gr aph
act ices
ĠLo op
St at
St retch
Ġtag s
ĠPort Fast
18 00
18 80
Ġback bone
dc db
Ġdo ing
by tes
ĠAl ternative
ĠAl located
ni que
Ġ16 6
Ġpr inciples
27 136
Ġar p
Ġob serve
nws leaf
av ior
Ġman ual
Ġman ages
Ġ13 9
Ġ18 12
ĠK e
ĠAut hority
ĠX XXXXXXXX
ĠĠĠĠĠĠĠĠ ĠĠ
ĠĠĠĠĠĠĠĠ ĠĠĠĠĠ
Con t
Ġnew ly
Ġreg ard
Ġprocess es
Ġco vered
Ġcomp rom
97 32
36 00
Ġresult ing
35 84
Ġint ent
Ġ00 50
Ġestablis hes
ĠUn its
Pro grammability
Ġgener ally
Ġconsid ering
Ġlimit s
Ġlimit ing
Ġden otes
89 05
Al location
ĠProv ide
ĠPr ioritization
ĠPr actices
Ġ27 136
Ġmod ular
IS IS
Ġequ ival
acl load
Ġoper ator
Ġqu est
Ġadjac ent
requ isites
Ġdiscus ses
Ġvar i
Ġcol lected
ĠBuffer CloudScale
Ġinterconnect ing
ĠSim ple
Ġautomat ic
Ġ95 0
Re ferences
ons or
-------------------------------- --------------------------------
Ġstretch ing
Ġ36 0
Ġ35 84
Ġcoun tr
Ap ollo
Aut omation
Po int
Ġmark ing
ĠWork flow
Ġstr ateg
Ġgu arant
SS X
Un icast
ĠAss um
ĠCap able
Ġdistinguis h
ĠAtt ribute
Ġstud io
ĠRef lector
velo per
Ġsl a
ĠSyn cE
Ġequip ment
Ġtre ated
Ġban ner
ĠAC K
Ġexperi ence
ĠHead quarters
ĠCo PP
Ġtrigg ers
ĠSub ject
ĠAud it
nat gw
Ġword s
Ġquer y
Ġpack age
Ġgranular ity
Ġparticip ate
Ġparticip ating
ĠDat agram
ĠMultip ath
ĠSM TP
Ġrat io
RoCE v
Ġcompl iance
Ġhour s
Ġaccompl ished
]: [
Ġquick ly
ĠPalo Alto
Ġscre en
Integr ation
ĠEncapsul ation
ĠResp onse
Ġrewrit ten
cnt acl
ïĤ §
reco very
Ġthems elves
ĠNGM VPN
ildc ard
ĠBeh avior
ĠGene ve
dcdb ac
Ġequival ent
4 608
7 68
B FD
C ases
D ACL
F r
G ig
G ateway
I GMP
K ubernetes
L ive
L OU
L ike
N ot
N umber
O bject
P l
T L
V L
W ork
Y ANG
a vailable
b est
b ursts
c enter
c ases
d f
d raft
e o
g ot
k ub
m ac
p hysical
p tions
s cal
s vi
t his
u fact
u ffix
w p
Ġ --
Ġ ..
Ġa ver
in ject
re lease
or igin
at ile
Ġs ys
Ġs crip
Ġs hell
it enancy
Ġf all
Ġc isco
Ġp ow
Ġp lus
Ġp arent
Ġp arameter
le t
le an
Ġ1 21
Ġ1 96
Ġb ase
Ġd rives
Ġd raft
Ġin tr
al so
al ys
ac enter
Ġn x
Ġn ature
Ġm s
Ġw orld
ation al
ĠS uffix
ĠN ull
ad ata
ĠI T
ĠA CE
ĠA rea
Ġre cursive
Ġe fficiency
ĠL ive
ĠL arge
ĠP avilion
âĢ ¦
Ġon line
Ġon boarding
ĠD ifferentiated
ĠB ut
ĠM aximum
ĠM achine
ĠF undamental
up led
ch or
st ep
ip t
id ing
ce ler
ĠR D
ĠR ACLs
Ġh air
Ġh ops
Ġex act
pl ied
Ġst uck
Ġor chestr
Ġg eneration
Ġg eo
port ant
ud io
Ġ4 608
Ġ6 00
ub le
ction s
Ġ9 99
Ġun authorized
rf eature
Ġover view
map s
Ġrece ipt
Ġ25 4
tr ademarks
ĠNDFC NDFC
Ġ93 180
Ġy ear
Ġ17 7
cap able
23 00
Ġother s
Ġ8 2
Ġpart s
Ġpart ner
Ġ7 9
Ġinter site
Ġ16 5
Ġpr iorit
ĠAn chor
27 5
Ġob vious
Ġident ification
Ġlog o
per formance
Ġ18 1
Ġind icate
pbr Policy
Ġ92 3
ĠAddress es
Ġab str
Ġrest art
Ġorigin ates
Ġag ree
ĠUn known
ight ly
ĠAp pro
ĠAp proximate
Ġke ys
Ġgo od
ĠRed irect
Ġ40 94
Ġscal ing
ĠProv ider
ĠUp on
acl Bu
ĠSe lectors
Ġoper ators
ES I
Ġredu ced
Ġcho os
ĠRes erved
Ġintegr ate
sec onds
Ġfac ility
Ġflood ed
Ġ50 999
Ġprob ability
Ġown ers
ĠTh us
Ġkey word
Ġcurrent ly
Ġlike ly
Ġ202 2
Ġcomplete ly
over lay
Ġmain ly
Ġsender feature
Ap plication
Ġtransl ation
Ġmt x
Group s
Ġclient s
ĠPlatform s
Qin Q
Op en
Ġbal ance
ĠRef lectors
Ġimpro ve
Ġimpro ved
Ġ-------- ------
Ġreco very
Ġexecut ed
lear n
Ġoffer ing
901 4
iti ators
ĠCent ral
Ġtrigg er
ĠVer ification
ĠVer ified
DB P
Ġcomb ination
500 01
Ġmonit ored
Ġretrans mission
ĠCode point
Ġperson a
Res erved
Over lay
Ġcall s
ĠRet urn
Ġvendor s
Ġsubsequ ent
Reference Legal
Ġtravers es
Ġhappen ing
Ġexplicit ly
Ġimmediate ly
Ġconsequ ence
ecial ly
ĠTechno logy
ĠGener al
Ġstit ch
Operation al
Ġdivid ed
ĠEnt ries
ĠFurther more
Ġpartn ership
NE TCONF
Ġide al
Ġbot t
ĠNON E
Ġcountr ies
ufact uring
Ġaver age
Ġpow ered
alys is
aclBu cket
" .
' t
, âĢĿ
1 20
3 89
4 48
7 168
8 02
8 999
9 06
A UL
B est
C ost
D Y
D is
D ocument
D WDM
F irst
F AUL
L imit
L ACP
M B
M ON
N ext
N CS
N FS
O EM
P R
P ers
P avilion
R AN
R ADIUS
R unning
S l
S witch
U tilization
a k
a z
a un
a ight
d et
d ie
e e
f ailover
g n
i ence
j unction
k ts
m ier
n ical
p u
p ing
r um
s istent
t est
x c
Ġ ------------------------
Ġt ext
Ġt urn
Ġt acacs
re source
on a
Ġs y
Ġs at
es k
it al
Ġc ross
ro ws
ing test
Ġ1 29
Ġ1 101
Ġd port
Ġd iffere
et er
Ġin sights
Ġin valid
Âł Ġ
al f
al ancing
us ing
Ġn one
Ġm vpn
Ġm iss
Ġm arks
Ġm routes
ar ily
ar ving
ĠS A
ĠS up
ĠS NAT
ĠS heet
ct m
Ġ10 6
ĠT wo
ĠN il
ĠN AC
ad itional
ĠI EE
Ġre lay
Ġre boot
00 01
ĠC urrent
Ġcon c
Ġcon junction
ĠL F
ĠL ay
ĠL ike
ĠP RE
ĠP MON
ver ified
Ġ2 99
Ġ2 17
Ġ2 06
Ġ2 96
ay s
od ule
ĠD ec
ĠD ocument
ĠD edicated
ĠB est
ĠB etween
ĠB rid
ĠB alancing
ĠM ost
ĠM ice
ĠM nT
ĠF ilter
Ġde cap
Ġde cre
un ce
ect rum
92 2
92 3
Ġl arg
Ġl icens
Ġl aun
Ġh yper
Ġh mm
Ġv ty
Ġv MAC
Ġv xlan
Ġal ive
fac e
Ġex ec
Ġex clud
Ġex clusive
Ġpro xy
Ġ3 13
Ġ3 15
Ġ3 14
Ġ3 26
Ġ3 18
ĠThe n
Ġst op
if iers
Ġg lob
Ġg pu
ĠIn itiators
Ġsh all
el net
ach ines
Ġ4 04
ost ate
ĠCon clusion
Ġper man
ĠH all
Ġac know
Ġip fm
24 9
Ġaut ostate
Ġ0 9
Ġr ule
Ġ9 13
Ġop enshift
rf c
Ġim plicit
th ing
Ġred ist
Ġout l
Ġcontrol lers
Ġgroup ed
ĠSt ate
witch port
Ġdesign ing
-------- ---
Ġ25 9
26 0
Ġspec ifies
252 8
ĠTr uck
Ġ93 48
red ir
ens es
Ġinst ru
Ġcl ar
28 0
Ġback ed
Ġma jor
Ġ7 168
Ġtrans ce
Ġ300 10
ĠAl ways
ĠAl though
Ġpr ior
br id
Ġob served
Ġredirect ing
Ġident ical
hen sive
Ġ18 6
par ing
RM IT
pre hensive
Ġbuffer ing
Ġ92 1
Ġ92 4
Ġappro ximate
95 2
97 36
Ġwe ight
Ġwe ighted
Ġrest rict
ĠPre pend
Ġ24 3
Ġ24 4
Ġconsist ently
pe ers
Ġver ified
ĠPo ol
Ġcomple ted
community send
ele com
Sp anned
Ġstate ment
On boarding
Ġfigure s
Ġoptim ization
host name
Ġselect ing
Ġ27 6
Ġ27 8
Ġ27 9
Ġmod ified
Ġme an
Ġposs ibility
Ġqu antity
Lo opback
Ġ28 4
Ġstart up
ĠWith out
Ġmaintain s
Ġestablish ment
Ġ210 205
bal ancing
Ġ26 0
outh bound
Ġdirection s
Ġextend s
Ġintrodu cing
Out bound
Ġsimpl ified
Ġinterconnect ion
ĠSim ilar
ĠExt ended
ĠExt ensions
Ġ33 9
Ġremo ves
Ġdec ide
Sh ared
ĠAg gregation
Ġret ain
Ġtransmit ting
Ġbound aries
cloud srv
rm on
ĠBackup s
Ġeff ort
ĠTime out
ĠWork s
Ġtransl ate
Ġstr aight
Ġgu idelines
Ġvalid ation
Un it
ĠJ DY
de vi
Ġk vm
Ġk ernel
Ġmet adata
ĠAss oci
ET RAP
sub tree
Ġ655 01
ĠDCN M
ĠAtt ributes
Ġalgorith ms
Ġenh anced
Se lector
Ġbal anc
ĠRef er
Ġpropag ate
Ġbl ack
Ġbp ps
Ġ54 321
Ġinstall ation
================================ ================
Ġfew er
Ġreco ver
Advertise ments
ĠAud ience
Ġ204 8
Ġchannel s
Ġsn mp
Ġmicro bursts
Ġquer ies
Ġmembership s
ĠEtherChannel s
EP L
nv me
Ġasp ects
rup tive
Ġfault y
Ġdevelo ped
Ġprot ect
Ġretrans mit
user name
ĠMultip rotocol
Ġaim ed
ĠBl ueprint
ĠHand off
ĠQue uing
Ġexperien ced
irm ware
ĠCons um
Ac counting
DE FAUL
xls x
Ġ6530 3
Ġincrement ing
Cent ric
Ġpip eline
Ġhtt ps
ĠGB P
Ġarriv al
Ġargu ments
Ġpb rfeature
Ġunint ention
Fr agment
Pl atform
Work er
scal ability
Ġgeo graph
ĠAppro ach
ĠIEE E
ĠLay out
ĠPRE SE
Ġlicens es
Ġexclusive ly
Ġglob ally
Ġperman ently
ĠJDY k
devi ations
DEFAUL T
. âĢĿ
2 102
9 04
> ]
A B
A D
A r
B oth
D st
D ate
D irect
D ie
D istributed
E lephant
F F
F TE
F inally
G A
G r
I s
I DI
K B
M X
M ax
O SE
O ption
P eer
P assword
R V
R ef
R ESTCONF
R osen
S ync
V N
V PC
V ACL
X R
b in
c c
d irect
d estination
f lash
g ith
n on
n ance
p inning
r or
r ight
s ible
v IP
Ġ kn
Ġ esp
Ġt ail
Ġt uples
Ġa u
in side
he st
re s
re es
on gs
on str
or st
or ies
Ġs ust
Ġs elf
ic on
ic ity
ic ture
en able
is ec
Ġf ed
Ġc lean
Ġp en
Ġp atch
Ġ1 22
lo okup
ac es
us ed
ig ination
ig ible
Ġw orst
ab ly
ar ning
ar ms
ĠS ize
ĠS RC
ĠS RV
Ġ10 7
ĠT itle
ĠT rees
ĠN e
ĠI ss
Ġcon tr
Ġe cho
ss ible
ĠP T
ver ged
Ġ2 16
Ġ2 23
Ġ2 101
Ġth ous
Ġon es
ĠD uring
ĠD eny
ĠB ursts
ĠB usiness
ĠM aster
ĠE as
ĠF ollowing
Ġde co
st ate
st ablis
ĠR J
ĠR elated
im eter
Ġl on
Ġl and
ap tive
Ġen cryp
Ġ3 27
Ġswit ched
Ġaddress ed
Ġan no
Ġst and
Ġg ives
out s
out side
Ġcom ing
Ġcom posed
um bo
ve re
ĠH op
Ġby te
ĠG o
Ġ5 14
Ġun idirectional
Ġpre p
Ġnot ice
Ġover subscription
Ġwh y
ĠMult itenancy
Ġle ft
ĠAd j
In ner
ual ity
Ġout age
Ġout come
Ġcontrol s
ĠPro cess
ĠPro be
26 2
Ġspec ifying
Ġch ip
Ġ93 36
Ġ17 3
Ġlink ed
Ġ8 1
ke epalive
order route
ĠLo okup
St udio
clud es
Ġspecific ations
MP TE
ens ive
comm and
Ġ7 1
Ġ7 5
Ġcont aining
ND I
Ġdis k
ĠAn sible
ĠNAT Unicast
Ġstat ically
Ġro und
Ġman ner
Ġlog ic
Ġ13 01
Ġ13 001
vent s
vent ions
Ġclass es
ĠAut om
ĠAut onomous
VRF s
SP AN
ĠNodes witchport
For ward
util ization
ĠNV IDI
Ġ500 51
Ġpeering s
Ġutil izing
Ġcomp ris
ĠMode Individual
Ġexp ress
Ġsepar ated
Ser ial
Ġlat ter
Ġalloc ate
Mult iple
Ġ00 00
AS LR
ĠUn it
Pro v
Ġstate ful
Ġtech nical
Ġform ed
ÂłÂłÂłÂłÂłÂłÂłÂłÂłÂłÂłÂłÂłÂłÂłÂł ÂłÂłÂłÂł
ĠBu ild
ĠBu ilt
Ġtunnel ing
Ġachie ves
Ġmod ification
Ġcontain ers
ĠWh y
ĠSe q
Ġstream s
Ġavoid ing
Ġevent ually
Ġway s
Ġstart ing
Ġtim ers
Ġrel ative
ĠRes er
Ġvar ies
ĠBuffer ing
Ġinterconnect s
ĠIm plementation
ĠUG H
ater ial
ĠSim ultaneous
Ġ95 08
Ġgr aceful
Ġread y
Ġremo ve
Ġenter ing
Ġmat rix
ĠNIC s
Ġiss ued
sn sr
ĠConsid eration
BGW s
ĠGu idelines
Ap plied
Ġ128 00
Ġmark et
Ġ---- --
coun ts
Ġtermin ate
VTEP s
ĠSites Use
ĠSites Split
ili ar
Ġk bytes
Ġinvol ved
Op timized
Ġhig hest
ĠCh ange
Ġnotification s
ĠCent ers
alcul ate
Ġdetermin es
Ġexh ib
Ġreflect s
Ġwrit ten
ĠNavig ate
Ġ1300 2
Ġselective ly
Im portant
ĠIntegr ation
optim ized
Ġdem onstr
Ġeffective ly
ĠRet r
Ġexpand ed
Ġsubsequ ently
Sim ilarly
Ġpus hed
ĠApp endix
Ġmultip ath
sens or
Ġfam iliar
Ġsubscrib e
Or igin
ĠBas ics
Ġinteroper ability
Ġbreak outs
Ġwa iting
Ġoverl ap
fail route
mem ory
Ġcompare s
ident al
Ġaccur acy
ĠKe epalive
LOU s
Ġyear s
Ġdiffere nce
Ġlaun ch
gith ub
Ġesp ecially
ĠIss ue
Ġthous ands
stablis hing
ĠNVIDI A
+ ).
+ --------------------------------
- ,
. :
1 102
2 32
5 36
6 28
7 216
8 100
9 00
9 12
9 13
9 05
9 07
A ction
A TCH
B ack
B UM
C o
C heck
C USTOMER
D K
D ay
D uring
D uplicate
E C
E stablishing
F IP
G lobal
G RPC
H X
H el
H ops
H SM
I L
J p
J Groups
K MS
L P
M an
M edia
M atrix
N VE
O ct
O ther
P H
P od
R O
R Cisco
R ACL
R VE
S I
S witches
S NS
S ome
S OD
T h
T Am
V er
W e
W OR
a king
b ash
d er
d le
d am
d om
d iscovery
g ue
h old
h sm
i i
i very
m aster
n ve
n ces
n umber
n apshot
o R
p rivate
p anel
r ap
r ide
s est
s ized
s ummary
t emplate
t owards
u it
v ations
Ġ ÂłÂłÂłÂł
Ġ âĹı
Ġt elecom
Ġa z
in ip
in ary
re g
re ed
on ses
Ġs ure
Ġs om
Ġs our
Ġs ix
Ġs cheduling
ic o
en cryp
es ired
it ial
is er
Ġf ilt
Ġc ur
Ġc ycle
ro pp
Ġp ure
Ġp opulated
Ġp ingtest
Ġ1 97
Ġb lan
Ġb idirectional
Ġd id
Ġd ashboard
Ġd riven
Ġin no
al u
an ner
Ġo ld
Ġo dd
ac le
Ġn bm
Ġn umer
Ġm alic
Ġm achines
ĠS LA
ĠS OD
ĠS plit
ĠS YS
ĠS napshot
ĠT emplates
ĠN ative
ĠN OT
ĠC USTOMER
Ġ( "
Ġcon duct
