{"<PAD>":0,"<UNK>":1,"<DOC_START>":2,"<DOC_END>":3,"<SECTION>":4,"<|endoftext|>":5,"!":6,"\"":7,"#":8,"$":9,"%":10,"&":11,"'":12,"(":13,")":14,"*":15,"+":16,",":17,"-":18,".":19,"/":20,"0":21,"1":22,"2":23,"3":24,"4":25,"5":26,"6":27,"7":28,"8":29,"9":30,":":31,";":32,"<":33,"=":34,">":35,"?":36,"@":37,"A":38,"B":39,"C":40,"D":41,"E":42,"F":43,"G":44,"H":45,"I":46,"J":47,"K":48,"L":49,"M":50,"N":51,"O":52,"P":53,"Q":54,"R":55,"S":56,"T":57,"U":58,"V":59,"W":60,"X":61,"Y":62,"Z":63,"[":64,"\\":65,"]":66,"^":67,"_":68,"`":69,"a":70,"b":71,"c":72,"d":73,"e":74,"f":75,"g":76,"h":77,"i":78,"j":79,"k":80,"l":81,"m":82,"n":83,"o":84,"p":85,"q":86,"r":87,"s":88,"t":89,"u":90,"v":91,"w":92,"x":93,"y":94,"z":95,"{":96,"|":97,"}":98,"~":99,"¡":100,"¢":101,"£":102,"¤":103,"¥":104,"¦":105,"§":106,"¨":107,"©":108,"ª":109,"«":110,"¬":111,"®":112,"¯":113,"°":114,"±":115,"²":116,"³":117,"´":118,"µ":119,"¶":120,"·":121,"¸":122,"¹":123,"º":124,"»":125,"¼":126,"½":127,"¾":128,"¿":129,"À":130,"Á":131,"Â":132,"Ã":133,"Ä":134,"Å":135,"Æ":136,"Ç":137,"È":138,"É":139,"Ê":140,"Ë":141,"Ì":142,"Í":143,"Î":144,"Ï":145,"Ð":146,"Ñ":147,"Ò":148,"Ó":149,"Ô":150,"Õ":151,"Ö":152,"×":153,"Ø":154,"Ù":155,"Ú":156,"Û":157,"Ü":158,"Ý":159,"Þ":160,"ß":161,"à":162,"á":163,"â":164,"ã":165,"ä":166,"å":167,"æ":168,"ç":169,"è":170,"é":171,"ê":172,"ë":173,"ì":174,"í":175,"î":176,"ï":177,"ð":178,"ñ":179,"ò":180,"ó":181,"ô":182,"õ":183,"ö":184,"÷":185,"ø":186,"ù":187,"ú":188,"û":189,"ü":190,"ý":191,"þ":192,"ÿ":193,"Ā":194,"ā":195,"Ă":196,"ă":197,"Ą":198,"ą":199,"Ć":200,"ć":201,"Ĉ":202,"ĉ":203,"Ċ":204,"ċ":205,"Č":206,"č":207,"Ď":208,"ď":209,"Đ":210,"đ":211,"Ē":212,"ē":213,"Ĕ":214,"ĕ":215,"Ė":216,"ė":217,"Ę":218,"ę":219,"Ě":220,"ě":221,"Ĝ":222,"ĝ":223,"Ğ":224,"ğ":225,"Ġ":226,"ġ":227,"Ģ":228,"ģ":229,"Ĥ":230,"ĥ":231,"Ħ":232,"ħ":233,"Ĩ":234,"ĩ":235,"Ī":236,"ī":237,"Ĭ":238,"ĭ":239,"Į":240,"į":241,"İ":242,"ı":243,"Ĳ":244,"ĳ":245,"Ĵ":246,"ĵ":247,"Ķ":248,"ķ":249,"ĸ":250,"Ĺ":251,"ĺ":252,"Ļ":253,"ļ":254,"Ľ":255,"ľ":256,"Ŀ":257,"ŀ":258,"Ł":259,"ł":260,"Ń":261,"ĠĠ":262,"čĊ":263,"Ġt":264,"Ġa":265,"in":266,"he":267,"re":268,"on":269,"er":270,"ĠĠĠ":271,"Ġthe":272,"or":273,"at":274,"Ġs":275,"ic":276,"en":277,"es":278,"it":279,"is":280,"Ġf":281,"Ġc":282,"ed":283,"ion":284,"ro":285,"Ġp":286,"nd":287,"le":288,"ing":289,"Ġ1":290,"Ġb":291,"Ġd":292,"et":293,"Ġin":294,"Âł":295,"lo":296,"ut":297,"al":298,"an":299,"Ġo":300,"Ġto":301,"ac":302,"us":303,"ÂłÂł":304,"Ġn":305,"Ġand":306,"Ġm":307,"as":308,"ig":309,"ent":310,"Ġw":311,"ab":312,"ation":313,"ar":314,"ĠV":315,"ĠS":316,"ct":317,"Ġ10":318,"ĠT":319,"ĠN":320,"ad":321,"ĠI":322,"ĠA":323,"Ġre":324,"00":325,"af":326,"ĠC":327,"il":328,"ter":329,"Ġof":330,"Ġ(":331,"Ġis":332,"co":333,"Ġcon":334,"Ġe":335,"Ġfor":336,"ul":337,"ss":338,"ĠL":339,"ĠP":340,"ur":341,"ure":342,"etw":343,"ver":344,"Ġ2":345,"ead":346,"ay":347,"ment":348,"âĢ":349,"Ġth":350,"Ġon":351,"od":352,"ĠD":353,"ork":354,"ĠB":355,"am":356,"ĠM":357,"ĠE":358,"Ġbe":359,"ult":360,"ag":361,"ress":362,"ĠF":363,"low":364,"up":365,"iv":366,"ch":367,"rout":368,"Ġde":369,"Ġad":370,"st":371,"ot":372,"etwork":373,"AN":374,"ip":375,"id":376,"ate":377,"ce":378,"ith":379,"fic":380,"Ġus":381,"ol":382,"un":383,"om":384,"ort":385,"ity":386,"ire":387,"ÂłÂłÂłÂł":388,"vic":389,"ĠR":390,"fig":391,"wit":392,"ĠĠĠĠ":393,"im":394,"ric":395,"ast":396,"--":397,"Ġwith":398,"ect":399,"ack":400,"20":401,"92":402,"LAN":403,"Ġrout":404,"10":405,"abric":406,"leaf":407,"ly":408,"Ġl":409,"93":410,"Ġh":411,"16":412,"dress":413,"ap":414,"Ġtr":415,"ex":416,"Ġv":417,"Ġal":418,"fac":419,"Ġnetwork":420,"Ġen":421,"Ġex":422,"terfac":423,"ist":424,"Ġpro":425,"Ġare":426,"able":427,"GP":428,"Ġ3":429,"ard":430,"ite":431,"ĠO":432,"âĢ¢":433,"Ġaead":434,"ow":435,"ĠThe":436,"pl":437,"Ġlo":438,"ĠIP":439,"Ġas":440,"isco":441,"che":442,"ode":443,"age":444,"Ġswit":445,"Ġaddress":446,"ec":447,"Ġthat":448,"affic":449,"qu":450,"all":451,"and":452,"Ġan":453,"Ġst":454,"Ġconfig":455,"208":456,"terface":457,"if":458,"icast":459,"25":460,"XLAN":461,"vice":462,"com":463,"Ġor":464,"est":465,"ess":466,"Ġg":467,"for":468,"ĠIn":469,"op":470,"ches":471,"RF":472,"end":473,"aead":474,"ive":475,"nect":476,"out":477,"PN":478,"ir":479,"94":480,"ine":481,"uration":482,"Ġtraffic":483,"em":484,"port":485,"ĠVXLAN":486,"her":487,"igure":488,"Ġsh":489,"el":490,"exus":491,"TE":492,"01":493,"ant":494,"ud":495,"ata":496,"Ġfabric":497,"ĠU":498,"VPN":499,"Ġcan":500,"to":501,"Ġcom":502,"oc":503,"ill":504,"The":505,"ers":506,"TEP":507,"ĠVRF":508,"Ġmult":509,"ore":510,"ame":511,"are":512,"ated":513,"ib":514,"se":515,"ĠVTEP":516,"Ġser":517,"ach":518,"ail":519,"olic":520,"tro":521,"AC":522,"Ġ4":523,"Ġsp":524,"ign":525,"----":526,"ĠCisco":527,"ost":528,"ayer":529,"sp":530,"ĠCon":531,"form":532,"int":533,"net":534,"Ġper":535,"vices":536,"Ġconnect":537,"um":538,"lan":539,"our":540,"Ġ6":541,"ies":542,"ĠNexus":543,"rom":544,"odes":545,"Ġse":546,"Ġwill":547,"ĠEVPN":548,"tern":549,"lay":550,"wall":551,"irewall":552,"Ġswitches":553,"12":554,"ve":555,"mc":556,"trol":557,"po":558,"nt":559,"iz":560,"Ġfrom":561,"ternal":562,"ĠH":563,"gs":564,"ĠĠĠĠĠĠĠ":565,"loc":566,"ple":567,"eaf":568,"Ġby":569,"und":570,"Ġac":571,"Ġthis":572,"ub":573,"Ġit":574,"ction":575,"13":576,"Figure":577,"ink":578,"Ġip":579,"yp":580,"olicy":581,"ĠAZ":582,"cess":583,"roup":584,"Ġconfiguration":585,"ther":586,"24":587,"ward":588,"11":589,"Ġaut":590,"ĠLayer":591,"ication":592,"ĠG":593,"ere":594,"Ġ0":595,"Ġ|":596,"ĠFabric":597,"acket":598,"NI":599,"ote":600,"tion":601,"ain":602,"own":603,"bmc":604,"ific":605,"216":606,"Ġr":607,"Ġprov":608,"Ġused":609,"Ġap":610,"ility":611,"Ġnodes":612,"Ġ5":613,"Ġ9":614,"Ġun":615,"lows":616,"Ġne":617,"bo":618,"lus":619,"ust":620,"his":621,"Ġdep":622,"Ġdef":623,"ide":624,"eer":625,"Ġpre":626,"02":627,"Ġroute":628,"esign":629,"Ġleaf":630,"ĠBGP":631,"Ġop":632,"FC":633,"rf":634,"GW":635,"loud":636,"==":637,"Ġall":638,"Ġport":639,"ĠâĢ¢":640,"vert":641,"ical":642,"Ġrequ":643,"ĠLeaf":644,"Ġnot":645,"loy":646,"ep":647,"ĠSer":648,"een":649,"etween":650,"Ġinterface":651,"gp":652,"Ġfirewall":653,"mgs":654,"back":655,"anage":656,"Ġbetween":657,"ource":658,"Table":659,"Ġpacket":660,"ang":661,"Ġcomm":662,"vertis":663,"Ġat":664,"Ġover":665,"Ġwh":666,"ĠMult":667,"Ġle":668,"igh":669,"BGP":670,"ĠâĢ":671,"15":672,"PC":673,"ob":674,"Ġwhe":675,"ĠAd":676,"ĠVLAN":677,"fr":678,"ass":679,"ĠNetwork":680,"map":681,"ÂłÂłÂłÂłÂłÂłÂłÂł":682,"way":683,"32":684,"enant":685,"Ġswitch":686,"ber":687,"rib":688,"Ġusing":689,"lock":690,"luster":691,"arg":692,"col":693,"anagement":694,"000":695,"Ġim":696,"onfig":697,"Ġuse":698,"Ġ-":699,"Ġmulticast":700,"ault":701,"io":702,"th":703,"In":704,"pn":705,"ĠThis":706,"Ġdata":707,"Ġrequire":708,"âĹ":709,"SE":710,"fere":711,"point":712,"ĠTC":713,").":714,"ase":715,"14":716,"ual":717,"tocol":718,"Ġrouting":719,"ext":720,"cal":721,"opback":722,"ĠW":723,"AZ":724,"Ġmode":725,"abl":726,"ctive":727,"interface":728,"Ġ65":729,"ĠAS":730,"ath":731,"ased":732,"ĠBGW":733,"ware":734,"ĠND":735,"ord":736,"ments":737,"Ġsame":738,"vpn":739,"art":740,"ca":741,"ability":742,"Ġred":743,"ype":744,"âĹı":745,"Ġend":746,"upport":747,"Ġconfigure":748,"Ġdeploy":749,"ĠRout":750,"oth":751,"erlay":752,"ateway":753,"ample":754,"Ġdevices":755,"ribut":756,"arget":757,"Ġup":758,"Ġhost":759,"ue":760,"vrf":761,"ix":762,"Ġany":763,"min":764,"so":765,"ich":766,"Ġservice":767,"Ġrem":768,"Ġout":769,"irect":770,"ubnet":771,"Ġund":772,"..":773,"Ġboth":774,"ond":775,"Ġeach":776,"Ġloopback":777,"cl":778,"ĠVNI":779,"Ġwhich":780,"ash":781,"lowing":782,"OS":783,"ef":784,"Ġcontrol":785,"Ġnode":786,"Ġfol":787,"ans":788,"ary":789,"ates":790,"fra":791,"ĠCloud":792,"Ġprovid":793,"ination":794,"Ġappl":795,"168":796,"gress":797,"ily":798,"ĠISE":799,"Ġrece":800,"Ġgroup":801,"eration":802,"ature":803,"ĠSt":804,"ance":805,"Ġpolicy":806,"ĠPro":807,"witch":808,"Ġset":809,"Ġsupport":810,"IC":811,"Ġforward":812,"ie":813,"Ġbelow":814,"formation":815,"cale":816,"fer":817,"cast":818,"Ġpeer":819,"mit":820,"board":821,"gpu":822,"riv":823,"Ġdesign":824,"--------":825,"Ġconfigured":826,"ĠNA":827,"amily":828,"Ġ25":829,"MC":830,"no":831,"cr":832,"Ġflows":833,"lect":834,"tr":835,"26":836,"ivity":837,"Ġspec":838,"ied":839,"Ġonly":840,"Ġadvertis":841,"eature":842,"Ġunicast":843,"estination":844,"30":845,"du":846,"Ġsec":847,"ions":848,"ou":849,"fix":850,"Ġlocal":851,"ĠNDFC":852,"OB":853,"mt":854,"Ġsite":855,"ashboard":856,"64":857,"ser":858,"Ġass":859,"iffere":860,"252":861,"enter":862,"ĠSite":863,"Ġneed":864,"Ġendpoint":865,"terfaces":866,"pro":867,"ĠDashboard":868,"ĠvPC":869,"Ġsource":870,"ĠSp":871,"ĠTr":872,"Ġch":873,"Ġexternal":874,"ifferent":875,"ys":876,"Ġipv":877,"Ġdefault":878,"lic":879,"vail":880,"Ġ93":881,"urity":882,"istribut":883,"ave":884,"ps":885,"ared":886,"Ġy":887,"Ġ17":888,"Ġbu":889,"Ġconnected":890,"unction":891,"Ġroutes":892,"gment":893,"lane":894,"put":895,"log":896,"Ġlink":897,"Ġfollowing":898,"vers":899,"atch":900,"Ġalso":901,"ree":902,"obj":903,"cy":904,"04":905,"Ġaccess":906,"target":907,"ization":908,"100":909,"Ġcluster":910,"of":911,"Ġunderlay":912,"cap":913,"Ġmust":914,"ime":915,"ross":916,"ĠFor":917,"Ġfunction":918,"23":919,"Ġinformation":920,"Ġwhere":921,"03":922,"ÂłÂłÂł":923,"ĠDC":924,"Ġdestination":925,"âĢĿ":926,"Ġother":927,"ile":928,"Ġ8":929,"GS":930,"ning":931,"Ġdifferent":932,"Ġone":933,"ĠĠĠĠĠĠĠĠĠĠĠ":934,"ces":935,"Ġhe":936,"ĠRe":937,"ia":938,"ition":939,"ke":940,"Site":941,"yst":942,"Ġmanagement":943,"Ġacross":944,"ĠASIC":945,"Ġremote":946,"TP":947,"red":948,"ario":949,"gh":950,"Ġexample":951,"bl":952,"gr":953,"act":954,"ĠMAC":955,"order":956,"family":957,"Ġ23":958,"ĠâĢľ":959,"42":960,"nel":961,"Ġhave":962,"ĠControl":963,"ĠMulti":964,"ĠLo":965,"====":966,"Ġmore":967,"Ġext":968,"St":969,"ĠOp":970,"Ġpermit":971,"wo":972,"Config":973,"ĠQ":974,"IP":975,"clud":976,"AM":977,"Ġprotocol":978,"Ġspecific":979,"spine":980,"ined":981,"que":982,"thernet":983,"ĠBMC":984,"Ġperform":985,"ge":986,"Ġtag":987,"ĠEx":988,"side":989,"ocu":990,"MP":991,"Ġsu":992,"Ġdevice":993,"Ġpo":994,"route":995,"Ġpl":996,"Ġnetworks":997,"255":998,"Ġtwo":999,"ged":1000,"Ġinterfaces":1001,"uring":1002,"ĠConfig":1003,"ial":1004,"Ġbased":1005,"ĠPort":1006,"Ġhas":1007,"Ġcons":1008,"18":1009,"ĠOOB":1010,"Ġinfra":1011,"ember":1012,"AP":1013,"ĠĠĠĠĠ":1014,"ocument":1015,"âĢĻ":1016,"ens":1017,"Ġinst":1018,"Ġadd":1019,"ĠVTEPs":1020,"ystem":1021,"Ġpart":1022,"blk":1023,"witches":1024,"umber":1025,"sul":1026,"Ġsend":1027,"Ġcl":1028,"28":1029,"WS":1030,"ĠLoc":1031,"ĠMGS":1032,"ĠEn":1033,"Ġ9000":1034,"Ġdet":1035,"Ġcommun":1036,"ĠTCP":1037,"capsul":1038,"ĠCore":1039,"ĠBlock":1040,"Ġ192":1041,"rivate":1042,"ugh":1043,"rough":1044,"ĠMP":1045,"Ġyou":1046,"215":1047,"ĠCom":1048,"Ġconnectivity":1049,"##":1050,"link":1051,"Ġpath":1052,"Cisco":1053,"Ġenabl":1054,"comm":1055,"ls":1056,"gest":1057,"Ġback":1058,"Ġma":1059,"hys":1060,"Ġ7":1061,"oul":1062,"Ġcont":1063,"crip":1064,"ould":1065,"dc":1066,"tual":1067,"Ġprefix":1068,"irtual":1069,"29":1070,"FX":1071,"Ġres":1072,"empl":1073,"Scale":1074,"list":1075,"hysical":1076,"data":1077,"Ġtrans":1078,"aus":1079,"ighb":1080,"gmt":1081,"Ġflow":1082,"Ġno":1083,"ĠâĢĵ":1084,"Ġdo":1085,"Ġrouter":1086,"ND":1087,"load":1088,"cription":1089,"VNI":1090,"ailure":1091,"),":1092,"orage":1093,"Ġwithin":1094,"Ġits":1095,"IM":1096,"Ġinter":1097,"Ġ100":1098,"config":1099,"Ġthrough":1100,"iple":1101,"ĠTCAM":1102,"gestion":1103,"22":1104,"Ġinclud":1105,"address":1106,"Ġ300":1107,"angu":1108,"iew":1109,"ighbor":1110,"Ġsubnet":1111,"air":1112,"by":1113,"99":1114,"sh":1115,"ĠAl":1116,"Ġcap":1117,"ni":1118,"ĠGP":1119,"Ġtable":1120,"Ġatt":1121,"Ġrequired":1122,"08":1123,"Ġdocument":1124,"Ġwhen":1125,"Ġaddresses":1126,"Ġdis":1127,"ĠDe":1128,"down":1129,"hop":1130,"escription":1131,"Ġshared":1132,"Ġspine":1133,"ry":1134,"Ġoverlay":1135,"Ġ9300":1136,"ĠRP":1137,"con":1138,"Ġif":1139,"Ġ16":1140,"ĠTenant":1141,"ting":1142,"yn":1143,"Ġfeature":1144,"Ġprovides":1145,"ĠNWS":1146,"ĠLocal":1147,"ced":1148,"Ġtype":1149,"ĠNX":1150,"Ġcommand":1151,"emplate":1152,"cen":1153,"ffer":1154,"ĠDesign":1155,"cenario":1156,"Ġpr":1157,"andw":1158,"ended":1159,"ĠData":1160,"Ġnext":1161,"very":1162,"Ġforwarding":1163,"vailable":1164,"Ġsuch":1165,"GX":1166,"ht":1167,"tware":1168,"ingle":1169,"app":1170,"Ġshow":1171,"Ġlear":1172,"Ġdeployment":1173,"ws":1174,"ites":1175,"Ġnumber":1176,"ification":1177,"CL":1178,"Ġmultiple":1179,"ĠFigure":1180,"Ġauto":1181,"ange":1182,"ĠMulticast":1183,"ify":1184,"Ġports":1185,"ccess":1186,"ĠAn":1187,"ection":1188,"101":1189,"ĠEthernet":1190,"ĠFirewall":1191,"Ġlist":1192,"oftware":1193,"</":1194,"ler":1195,"Ġtenant":1196,"Ġevpn":1197,"ĠNAT":1198,"vel":1199,"one":1200,"lector":1201,"Ġtime":1202,"br":1203,"ts":1204,"Ġ*":1205,"Ġens":1206,"27":1207,"ru":1208,"idth":1209,"Ġar":1210,"hent":1211,"Ġob":1212,"andwidth":1213,"vlan":1214,"ĠSG":1215,"19":1216,"nws":1217,"Ġ15":1218,"ĠManagement":1219,"pp":1220,"Ġtoward":1221,"omain":1222,"45":1223,"Ġque":1224,"Ġfabrics":1225,"Ġredirect":1226,"Ġx":1227,"Ġendpoints":1228,"05":1229,"Ġactive":1230,"Ġsim":1231,"oci":1232,"anguage":1233,"ency":1234,"ior":1235,"ĠTraffic":1236,"Ġ:":1237,"ator":1238,"17":1239,"xim":1240,"ĠY":1241,"Ġid":1242,"Ġcenter":1243,"ace":1244,"ĠService":1245,"Ġ172":1246,"ines":1247,"Ġdefined":1248,"ĠPolicy":1249,"vir":1250,"Ġ\"":1251,"ĠSwitches":1252,"viron":1253,"DP":1254,"te":1255,"ong":1256,"Ġpackets":1257,"Ġstat":1258,"av":1259,"ĠPIM":1260,"ck":1261,"ech":1262,"atform":1263,"Ġsingle":1264,"itect":1265,"chitect":1266,"Ġreceiv":1267,"Ġro":1268,"Ġshut":1269,"ret":1270,"ized":1271,"06":1272,"Note":1273,"switch":1274,"ache":1275,"Ġman":1276,"Ġcongestion":1277,"ient":1278,"Ġcase":1279,"ĠAdmin":1280,"Ġdomain":1281,"ĠTag":1282,"Ġident":1283,"ĠSwitch":1284,"ĠPrivate":1285,"ruct":1286,"group":1287,"Ġent":1288,"ĠRoute":1289,"Ġlog":1290,"Ġprovide":1291,"Ġassoci":1292,"CN":1293,"ice":1294,"ision":1295,"Ġ13":1296,"mgmt":1297,"vent":1298,"Ġinto":1299,"logy":1300,"ĠConfiguration":1301,"Ġclass":1302,"Ġenabled":1303,"hen":1304,"ĠID":1305,"Ġgateway":1306,"oute":1307,"Ġshown":1308,"128":1309,"ĠFlow":1310,"Ġvia":1311,"vertise":1312,"sent":1313,"Ġplane":1314,"102":1315,"Ġval":1316,"chitecture":1317,"per":1318,"Ġdirect":1319,"Ġoperation":1320,"Ġing":1321,"Ġblock":1322,"Ġensure":1323,"hentication":1324,"irection":1325,"LS":1326,"Ġphysical":1327,"ible":1328,"CE":1329,"Leaf":1330,"ails":1331,"ĠSpine":1332,"Ġso":1333,"Ġapplication":1334,"be":1335,"Ġosp":1336,"ĠIPv":1337,"Ġsecurity":1338,"Ġdoes":1339,"Ġwork":1340,"Ġserver":1341,"ACL":1342,"itional":1343,"Ġ18":1344,"48":1345,"TC":1346,"os":1347,"ww":1348,"Ġ>":1349,"Ġavailable":1350,"pute":1351,"Ġcommunication":1352,"ating":1353,"Ġallows":1354,"Ġshutdown":1355,"FP":1356,"RP":1357,"ĠAccess":1358,"ched":1359,"Ġservices":1360,"efault":1361,"ĠIt":1362,"ĠPeer":1363,"ved":1364,"ĠBGWs":1365,"Ġborder":1366,"istr":1367,"force":1368,"Ġmodel":1369,"ĠK":1370,"ĠCluster":1371,"ĠServices":1372,"ON":1373,"Ġ/":1374,"ence":1375,"ecurity":1376,"ous":1377,"annel":1378,"Ġvrf":1379,"ĠProtocol":1380,"ĠDCI":1381,"Ġsystem":1382,"olut":1383,"ĠGateway":1384,"Ġadvertise":1385,"Ġpoint":1386,"vironment":1387,"Ġingress":1388,"cp":1389,"ted":1390,"ind":1391,"Ġsites":1392,"Ġmatch":1393,"ĠAut":1394,"ardware":1395,"ximum":1396,"07":1397,"ell":1398,"Ġimport":1399,"VXLAN":1400,"met":1401,"ructure":1402,"Ġuser":1403,"olicies":1404,"Ġsegment":1405,"ĠRouting":1406,"Ġcre":1407,"254":1408,"Ġthere":1409,"lease":1410,"Ġdistribut":1411,"andby":1412,"ize":1413,"ject":1414,"Ġmember":1415,"fw":1416,"Ġreach":1417,"ĠVRFs":1418,"par":1419,"ply":1420,"Ġbut":1421,"Ġind":1422,"Ġencapsul":1423,"tions":1424,"Ġadvertised":1425,"ĠDevice":1426,"RM":1427,"pbr":1428,"Ġbandwidth":1429,"Ġdro":1430,"Ġhow":1431,"Configuration":1432,"VRF":1433,"ne":1434,"pre":1435,"orm":1436,"SP":1437,"date":1438,"ĠX":1439,"oroute":1440,"ĠNodes":1441,"ĠĠĠĠĠĠĠĠ":1442,"Ġautoroute":1443,"feren":1444,"ok":1445,"plement":1446,"Con":1447,"Ġallow":1448,"Ġnew":1449,"ĠGPU":1450,"Ġtheir":1451,"ĠACL":1452,"Ġpair":1453,"Ġvirtual":1454,"200":1455,"Ad":1456,"BM":1457,"ative":1458,"Ġbuffer":1459,"ĠActive":1460,"ĠStorage":1461,"Ġet":1462,"Ġmay":1463,"For":1464,"Ġlanguage":1465,"ified":1466,"Ġthese":1467,"unt":1468,"ĠOver":1469,"ĠeBGP":1470,"util":1471,"ĠType":1472,"ĠTemplate":1473,"duct":1474,"ED":1475,"cisco":1476,"Ġ92":1477,"plication":1478,"ĠAddress":1479,"Ġplatform":1480,"Ġlearn":1481,"Ġarchitecture":1482,"osp":1483,"ĠNV":1484,"Ġreg":1485,"Ġ500":1486,"CP":1487,"Ġsoftware":1488,"icated":1489,"ĠIf":1490,"Ġappro":1491,"bove":1492,"Ġapplied":1493,"ph":1494,"Ġmapp":1495,"segment":1496,"----------------":1497,"95":1498,"based":1499,"Ġtyp":1500,"Ġautom":1501,"========":1502,"Ġmgs":1503,"Ġ<":1504,"Ġabove":1505,"Ġprocess":1506,"Ġshows":1507,"nderlay":1508,"ages":1509,"ources":1510,"Ġpeering":1511,"Ġco":1512,"ild":1513,"ĠInterface":1514,"ĠVLANs":1515,"Ġutil":1516,"lex":1517,"ĠNode":1518,"ĠPlane":1519,"eploy":1520,"olution":1521,"Ġbond":1522,"imit":1523,"ĠEth":1524,"ĠConnect":1525,"Ġanycast":1526,"Ġhead":1527,"21":1528,"cre":1529,"ases":1530,"ĠOB":1531,"Ġcomp":1532,"word":1533,"Ġfailure":1534,"ĠMode":1535,"Ġhigh":1536,"Ġobs":1537,"//":1538,"source":1539,"Ġ=":1540,"ics":1541,"Ġbgp":1542,"Ġenable":1543,"ĠController":1544,"forcement":1545,"ER":1546,"ĠTo":1547,"htt":1548,"Cloud":1549,"ycast":1550,"Ġfr":1551,"Ġele":1552,"Ġneighbor":1553,"Ġ239":1554,"Ġassociated":1555,"Ġab":1556,"ations":1557,"ms":1558,"path":1559,"ĠName":1560,"core":1561,"astructure":1562,"Ġexp":1563,"frastructure":1564,"FD":1565,"Ġmulti":1566,"Step":1567,"Ġbackup":1568,"Ġredirects":1569,"ĠGroup":1570,"ically":1571,"Ġlinks":1572,"Ġdocumentation":1573,"://":1574,"This":1575,"Ġ14":1576,"Ġuses":1577,"Ġsepar":1578,"name":1579,"tim":1580,"ÂłÂłÂłÂłÂłÂłÂł":1581,"Ġvni":1582,"ustom":1583,"Ġlevel":1584,"Ġimplement":1585,"97":1586,"App":1587,"ĠTRM":1588,"Ġvlan":1589,"ibility":1590,"ĠLog":1591,"fter":1592,"imary":1593,"Ġdeployed":1594,"retched":1595,"Ġwe":1596,"Ġrest":1597,"Ġrecei":1598,"Ġassign":1599,"Nexus":1600,"Ġthey":1601,"igin":1602,"ĠVlan":1603,"Ġrun":1604,"dent":1605,"ancy":1606,"assword":1607,"ĠCloudScale":1608,"Ġsecond":1609,"ging":1610,"mp":1611,"Ġcaus":1612,"umm":1613,"ĠHost":1614,"ose":1615,"unnel":1616,"36":1617,"hor":1618,"Ġscenario":1619,"Ġshould":1620,"BR":1621,"aa":1622,"ĠSeries":1623,"Ġthem":1624,"Ġthen":1625,"vailability":1626,"Ġextended":1627,"Ġegress":1628,"ĠPre":1629,"Ġ24":1630,"ĠOSP":1631,"Ġdepic":1632,"Ġconsist":1633,"Ġsubnets":1634,"Ġtowards":1635,"phant":1636,"CloudScale":1637,"iel":1638,"Ġsub":1639,"ener":1640,"Ġenvironment":1641,"ield":1642,"34":1643,"edicated":1644,"001":1645,"unity":1646,"Ġlayer":1647,"ops":1648,"Ġqueue":1649,"ier":1650,"ities":1651,"ane":1652,"https":1653,"09":1654,"eed":1655,"aram":1656,"Ġadmin":1657,"Ġseg":1658,"ered":1659,"duction":1660,"Ser":1661,"YC":1662,"Ġ[":1663,"andard":1664,"ACS":1665,"ACACS":1666,"ĠSGT":1667,"Ġheader":1668,"rmap":1669,"subnet":1670,"urpo":1671,"ĠOn":1672,"ious":1673,"###":1674,"member":1675,"isite":1676,"old":1677,"DC":1678,"ĠECN":1679,"Ġunder":1680,"aramet":1681,"Ġ&":1682,"ark":1683,"ĠVPC":1684,"ablis":1685,"links":1686,"Ġresult":1687,"okup":1688,"VI":1689,"ĠEach":1690,"isting":1691,"Ġ255":1692,"policy":1693,"qos":1694,"Ġed":1695,"Ġta":1696,"ĠIdent":1697,"....":1698,"NDFC":1699,"pe":1700,"Ġincre":1701,"Ġinfrastructure":1702,"ĠDeploy":1703,"unk":1704,"Ġrouted":1705,"ĠOBJ":1706,"35":1707,"VLAN":1708,"fore":1709,"view":1710,"Ġver":1711,"Ġcar":1712,"ally":1713,"alled":1714,"irst":1715,"ory":1716,"Ġpolicies":1717,"Ġint":1718,"ĠARP":1719,"ÂłÂłÂłÂłÂł":1720,"ĠRo":1721,"Ġlat":1722,"allen":1723,"ĠUDP":1724,"Ġinstance":1725,"ynam":1726,"clus":1727,"kn":1728,"ml":1729,"Ġloc":1730,"Ġorigin":1731,"emote":1732,"Ġsegments":1733,"NS":1734,"vious":1735,"ert":1736,"Ġdedicated":1737,"Ġinside":1738,"ĠAs":1739,"Ġalloc":1740,"ĠUnderlay":1741,"Ġoutside":1742,"ached":1743,"Mult":1744,"ues":1745,"Ġpim":1746,"Ġretr":1747,"cep":1748,"180":1749,"ĠCompute":1750,"pr":1751,"vc":1752,"Ġ00":1753,"Ġdown":1754,"Ġnve":1755,"router":1756,"establis":1757,"To":1758,"onit":1759,"ĠPo":1760,"ANG":1761,"Ġtrack":1762,"Ġcomple":1763,"Ġseparate":1764,"ĠOSPF":1765,"ffic":1766,"only":1767,"Ġbo":1768,"community":1769,"iority":1770,"Ġreceived":1771,"PBR":1772,"Ġi":1773,"Ġj":1774,"ĠSh":1775,"Ġvalue":1776,"DI":1777,"gateway":1778,"match":1779,"Ġrmap":1780,"33":1781,"AS":1782,"bers":1783,"bps":1784,"ele":1785,"mult":1786,"rd":1787,"site":1788,"ĠSVI":1789,"ĠNBM":1790,"aining":1791,"Sp":1792,"ner":1793,"Ġestablis":1794,"Ġag":1795,"Ġsection":1796,"ĠUn":1797,"137":1798,"Ġhosts":1799,"ĠOpen":1800,"arameters":1801,"TTP":1802,"UM":1803,"Wh":1804,"description":1805,"Ġact":1806,"ĠVM":1807,"ective":1808,"ight":1809,"lick":1810,"connect":1811,"tings":1812,"ST":1813,"less":1814,"ream":1815,"Ġ123":1816,"ĠSS":1817,"Ġproduct":1818,"ension":1819,"Fabric":1820,"ever":1821,"Ġfield":1822,"ilar":1823,"ĠBorder":1824,"Ġtrunk":1825,"Ġ9216":1826,"As":1827,"ias":1828,"vn":1829,"Ġbr":1830,"ents":1831,"ĠScenario":1832,"orth":1833,"erations":1834,"ĠExternal":1835,"Ġdetails":1836,"ĠAnycast":1837,"DAP":1838,"Pro":1839,"les":1840,"oring":1841,"Ġfw":1842,"Ġlookup":1843,"Ġgener":1844,"Ġrequirements":1845,"ĠWhen":1846,"Ġfunctions":1847,"Ġtagged":1848,"ĠNVE":1849,"alic":1850,"ĠRemote":1851,"ways":1852,"Ġfunctional":1853,"ĠAll":1854,"ĠYANG":1855,"ĠAp":1856,"Ġresp":1857,"Ġrecomm":1858,"Ġwithout":1859,"Ġ32":1860,"Ġprevious":1861,"Ġneeds":1862,"Ġconsid":1863,"isioning":1864,"XX":1865,"band":1866,"Ġsign":1867,"iss":1868,"Ġdes":1869,"use":1870,"ential":1871,"Ġcontext":1872,"Ġapproach":1873,"ĠFailure":1874,"Ġsupported":1875,"gram":1876,"Ġattached":1877,"Ġospf":1878,"neighbor":1879,"paths":1880,"ff":1881,"Ġke":1882,"road":1883,"Ġname":1884,"advertise":1885,"count":1886,"channel":1887,"Ġupdate":1888,"Ġincludes":1889,"roadcast":1890,"Ġcustom":1891,"Ġ200":1892,"Ġbeca":1893,"Ġstate":1894,"Ġgo":1895,"Ġredund":1896,"mtu":1897,"Ġtypes":1898,"Ġedge":1899,"Ġbecause":1900,"40":1901,"Ch":1902,"CMP":1903,"vni":1904,"Ġcor":1905,"Ġpurpo":1906,"ĠPFC":1907,"ĠRed":1908,"Ġrouters":1909,"93180":1910,"Ġ40":1911,"Ġperformance":1912,"Ġmaint":1913,"ĠPeering":1914,"ference":1915,"Ġelephant":1916,"aximum":1917,"its":1918,"Ġlimit":1919,"ĠFabrics":1920,"bound":1921,"Ġverify":1922,"43":1923,"crib":1924,"ries":1925,"xx":1926,"Ġscal":1927,"Ġoption":1928,"ĠTagged":1929,"Ġmapping":1930,"**":1931,"31":1932,"Ġtech":1933,"Ġsolution":1934,"Ġduring":1935,"ĠNot":1936,"ular":1937,"Ġthan":1938,"Ġhardware":1939,"Ġtrad":1940,"Ġneeded":1941,"alico":1942,"On":1943,"PE":1944,"fls":1945,"Ġ20":1946,"ected":1947,"Ġexport":1948,"class":1949,"efine":1950,"istribute":1951,"Ġlogical":1952,"68":1953,"EA":1954,"sd":1955,"Ġfigure":1956,"Ġden":1957,"Ġform":1958,"ĠBUM":1959,"aper":1960,"Ġalways":1961,"Ġservers":1962,"Ġoptim":1963,"89":1964,"Ex":1965,"fd":1966,"host":1967,"ĠTACACS":1968,"0000":1969,"Ġev":1970,"Ġstorage":1971,"ĠAZs":1972,"Ġauthentication":1973,"Ġpresent":1974,"ÂłÂłÂłÂłÂłÂłÂłÂłÂłÂłÂłÂłÂłÂłÂłÂł":1975,"redist":1976,"65":1977,"9000":1978,"Al":1979,"peer":1980,"sed":1981,"Ġdue":1982,"anis":1983,"anning":1984,"ĠIN":1985,"Ġ201":1986,"ĠInter":1987,"Ġ::":1988,"echanis":1989,"metry":1990,"ĠConnectivity":1991,"Active":1992,"OC":1993,"eth":1994,"Ġinternal":1995,"ĠBu":1996,"chie":1997,"Ġselect":1998,"Ġwhile":1999,"Ġbuild":2000,"ĠPorts":2001,"istration":2002,"ummary":2003,"OU":2004,"default":2005,"resh":2006,"Ġtopo":2007,"Ġwell":2008,"Ġarea":2009,"Ġstatic":2010,"present":2011,"feature":2012,"ron":2013,"sdc":2014,"vant":2015,"Ġtunnel":2016,"Ġmess":2017,"verse":2018,"Ġbeh":2019,"Ġload":2020,"ĠProv":2021,"Ġhel":2022,"ause":2023,"www":2024,"ĠIdentity":2025,"96":2026,"uing":2027,"ĠDown":2028,"Ġbecom":2029,"local":2030,"lice":2031,"ĠComm":2032,"ves":2033,"ĠVPN":2034,"ĠPr":2035,"ĠDet":2036,"ĠEgress":2037,"ived":2038,"103":2039,"arge":2040,"Ġprimary":2041,"tegr":2042,"onitoring":2043,"oob":2044,"Ġpassword":2045,"Ġnon":2046,"Ġmice":2047,"Ġ27":2048,"mcast":2049,"Ġmodels":2050,"ertific":2051,"reshold":2052,")#":2053,"flow":2054,"miss":2055,"rite":2056,"Ġachie":2057,"ances":2058,"Ġrefer":2059,"ĠCL":2060,"Ġadj":2061,"ome":2062,"Ġsee":2063,"Ġconfigurations":2064,"Ġops":2065,"lices":2066,"arious":2067,"html":2068,"Ġrole":2069,"ynamic":2070,"gramm":2071,"Ġtopology":2072,"rent":2073,"Ġmechanis":2074,"Ġrepresent":2075,"ĠLDAP":2076,"ĠOut":2077,"ĠServer":2078,"Ġgroups":2079,"ĠForward":2080,"Ġprefixes":2081,"TCON":2082,"TCONF":2083,"55":2084,"CT":2085,"DM":2086,"ML":2087,"ym":2088,"internal":2089,"Ġpers":2090,"Ġmod":2091,"ĠSet":2092,"ĠCenter":2093,"ivid":2094,"ustr":2095,"Ġ30000":2096,"show":2097,"IS":2098,"ses":2099,"ving":2100,"Ġbest":2101,"Ġref":2102,"201":2103,"Ġvarious":2104,"ĠGPO":2105,"allenge":2106,"192":2107,"Ethernet":2108,"cing":2109,"ear":2110,"Ġill":2111,"Ġfirst":2112,"Ġapplications":2113,"horization":2114,"EAF":2115,"Ġillustr":2116,"224":2117,"iet":2118,"Ġsess":2119,"Ġparameters":2120,"ĠSP":2121,"Ġequ":2122,"Ġattribut":2123,"Ġidentity":2124,"Ġlearned":2125,"known":2126,"Ġcorre":2127,"37":2128,"51":2129,"Ġvers":2130,"heck":2131,"acity":2132,"Ġmin":2133,"Ġwould":2134,"ĠSecurity":2135,"ilter":2136,"Ġuni":2137,"Ġcontain":2138,"Ġtransport":2139,"RAP":2140,"oid":2141,"val":2142,"Ġ....":2143,"Ġmo":2144,"ĠePBR":2145,"ĠBack":2146,"ÂłÂłÂłÂłÂłÂł":2147,"Ġstandard":2148,"ĠUp":2149,"130":2150,"ĠWh":2151,"Ġprotocols":2152,"Ġdisc":2153,"Ġutilization":2154,"gre":2155,"ho":2156,"iag":2157,"oS":2158,"erm":2159,"Ġme":2160,"arse":2161,"ĠHow":2162,"159":2163,"ĠVNIs":2164,"ĠStat":2165,"TY":2166,"rit":2167,"wn":2168,"Ġsyn":2169,"ise":2170,"ull":2171,"ĠLAN":2172,"Ġthose":2173,"Ġstep":2174,"ĠGig":2175,"Ġapply":2176,"epend":2177,"Ġoperations":2178,"Ġrunning":2179,"ĠRoCE":2180,"Ġ12345":2181,"Ġtechno":2182,"Ġunique":2183,"213":2184,"How":2185,"NMP":2186,"evpn":2187,"node":2188,"Ġqos":2189,"ither":2190,"Ġflex":2191,"str":2192,"Ġrequest":2193,"Ġcommon":2194,"cryp":2195,"En":2196,"cur":2197,"ike":2198,"onents":2199,"ĠAI":2200,"ilities":2201,"Ġevery":2202,"ĠLink":2203,"iven":2204,"Ġlarge":2205,"istics":2206,"ACP":2207,"Ġspines":2208,"ĠNetworks":2209,"Ġimage":2210,"Ġdeployments":2211,"Ġextension":2212,"Ġreachability":2213,"ĠPrefix":2214,"AR":2215,"tree":2216,"Ġav":2217,"rop":2218,"acl":2219,"ĠSe":2220,"Ġhand":2221,"istent":2222,"Ġget":2223,"Ġ64":2224,"Ġsequ":2225,"Ġrate":2226,"Ġoper":2227,"ĠASN":2228,"Ġoutput":2229,"Ġsupports":2230,"tract":2231,"Ġposs":2232,"sds":2233,"300":2234,"IN":2235,"eb":2236,"sing":2237,"switches":2238,"Ġqu":2239,"Ġsize":2240,"ĠSec":2241,"Ġreplication":2242,"ampl":2243,"Ġmaximum":2244,"Ġincluding":2245,"Ġmanag":2246,"Ġassigned":2247,"amples":2248,"):":2249,"When":2250,"eg":2251,"rem":2252,"Ġdescription":2253,"Ġepbr":2254,"ĠPacket":2255,"209":2256,"plane":2257,"Ġstream":2258,"250":2259,"Ingress":2260,"Ġstatus":2261,"cket":2262,"Ġdistributed":2263,"Ġdescrib":2264,"Ġadjac":2265,"Ġavoid":2266,"ty":2267,"Ġintro":2268,"Ġnative":2269,"Ġwas":2270,"Ġloss":2271,"Ġstretched":2272,"Ġpaths":2273,"ĠAuthentication":2274,"ĠDeployment":2275,"Lo":2276,"SFP":2277,"fip":2278,"mode":2279,"maximum":2280,"ram":2281,"Ġfail":2282,"Ġinit":2283,"abilities":2284,"Ġevent":2285,"Ġ28":2286,"ĠMB":2287,"metric":2288,"Ġretry":2289,"ividual":2290,"ful":2291,"tenant":2292,"Ġsent":2293,"icate":2294,"ndpoint":2295,"Ġway":2296,"Ġeither":2297,"ĠThere":2298,"ĠThese":2299,"Ġstart":2300,"ntag":2301,"ĠRequ":2302,"Standby":2303,"Ġaddition":2304,"Ġadditional":2305,"ĠEnforcement":2306,"Ġentries":2307,"Band":2308,"file":2309,"iate":2310,"nexus":2311,"onom":2312,"aring":2313,"Ġbeen":2314,"Ġusers":2315,"ĠRead":2316,"plink":2317,"iscovery":2318,"ĠUntag":2319,"greg":2320,"ADI":2321,"ES":2322,"Network":2323,"US":2324,"fc":2325,"Ġtim":2326,"ĠNo":2327,"ĠAr":2328,"Ġrepl":2329,"ollector":2330,"external":2331,"Ġexch":2332,"Ġstandby":2333,"Ġrequires":2334,"Ġredu":2335,"Ġreceive":2336,"tra":2337,"Ġcho":2338,"grad":2339,"Ġdirectly":2340,"Ġsegmentation":2341,"ĠForwarding":2342,"GM":2343,"eers":2344,"uide":2345,"hed":2346,"requ":2347,"Ġbroadcast":2348,"ĠSFP":2349,"ĠNTP":2350,"Ġrel":2351,"ĠRes":2352,"Ġexisting":2353,"ĠInformation":2354,"ĠUplink":2355,"ocp":2356,"service":2357,"ators":2358,"Ġreceivers":2359,"Ġlatency":2360,"Ġeven":2361,"pend":2362,"read":2363,"Ġcalled":2364,"Ġintegr":2365,"ĠIS":2366,"Ġoff":2367,"ĠLACP":2368,"otal":2369,"obs":2370,"ĠWith":2371,"ĠLoopback":2372,"Ġadded":2373,"Ġresources":2374,"Ġlearning":2375,"191":2376,"Ġqueuing":2377,"'s":2378,"Com":2379,"View":2380,"fabric":2381,"led":2382,"Ġtarget":2383,"ask":2384,"Ġ220":2385,"Ġthreshold":2386,"ired":2387,"Ġenforcement":2388,"GPU":2389,"Ġspace":2390,"Ġ65001":2391,"Ġworkload":2392,"Ġdrop":2393,"================":2394,"Ġmaintain":2395,"mission":2396,"OAP":2397,"Private":2398,"ermin":2399,"Ġ12":2400,"ĠVirtual":2401,"ĠAFD":2402,"Ġencapsulated":2403,"ormal":2404,"Ġallowed":2405,"Ġsecondary":2406,"Ġadministr":2407,"Ġdiscus":2408,"remote":2409,"EX":2410,"Gbps":2411,"elow":2412,"set":2413,"sec":2414,"ten":2415,"work":2416,"Ġpeers":2417,"ĠSoftware":2418,"ilt":2419,"ĠDefault":2420,"Ġbeing":2421,"ĠIngress":2422,"ĠUP":2423,"Ġrack":2424,"Ġrange":2425,"ĠAdd":2426,"Ġcapacity":2427,"Ġfeatures":2428,"Ġestablish":2429,"Ġpossible":2430,"Host":2431,"sid":2432,"ĠScale":2433,"urn":2434,"Ġvar":2435,"Ġstore":2436,"ĠAdvertise":2437,"aches":2438,"Ġentry":2439,"clusion":2440,"Ġredundancy":2441,"Collector":2442,"DOC":2443,"Ġâ":2444,"Ġoc":2445,"Ġmem":2446,"abel":2447,"ĠPE":2448,"Ġ210":2449,"play":2450,"251":2451,"ĠUND":2452,"Ġ400":2453,"Ġdepend":2454,"Ġ65101":2455,"ĠReg":2456,"Ġ2300":2457,"ĠOperation":2458,"Ġinclude":2459,"Ġcommands":2460,"ĠHowever":2461,"ĠUNDER":2462,"bal":2463,"part":2464,"anced":2465,"ĠSubnet":2466,"Ġ26":2467,"uper":2468,"Ġlong":2469,"Ġ30":2470,"ĠIPs":2471,"ecific":2472,"Ġgiven":2473,"Ġproviding":2474,"ĠTrans":2475,"Ġpract":2476,"Ġregion":2477,"Ġframe":2478,"Ġdepicts":2479,"elemetry":2480,"ĠSettings":2481,"IO":2482,"Policy":2483,"Tr":2484,"til":2485,"ľĵ":2486,"Ġsample":2487,"Ġflo":2488,"Ġfamily":2489,"level":2490,"ether":2491,"Ġmost":2492,"ention":2493,"ĠSNMP":2494,"chron":2495,"other":2496,"106":2497,"9364":2498,"outh":2499,"ird":2500,"Ġswitchport":2501,"Ġprovider":2502,"Ġsends":2503,"ĠShared":2504,"ĠUnicast":2505,"Ġâľĵ":2506,"54":2507,"RI":2508,"free":2509,"Ġam":2510,"infra":2511,"Ġfac":2512,"edia":2513,"Ġdirection":2514,"ĠCl":2515,"Ġallowing":2516,"Ġsparse":2517,"Ġuplinks":2518,"Configuring":2519,"Ġcapabilities":2520,"Ġdisplay":2521,"ĠDevices":2522,"Ġclassification":2523,"Ġadvertisement":2524,"Ġeth":2525,"Ġreceiver":2526,"fficient":2527,"Ġmechanism":2528,"ymmetric":2529,"LK":2530,"SG":2531,"kes":2532,"Ġfirewalls":2533,"redistribute":2534,"Ġextend":2535,"ĠQoS":2536,"control":2537,"iagram":2538,"Ġintrodu":2539,"BD":2540,"Ġlow":2541,"Ġcol":2542,"ĠSystem":2543,"Ġrelease":2544,"ĠFW":2545,"ĠInfra":2546,"Ġoptions":2547,"Ġsecure":2548,"Ġlists":2549,"ĠOverlay":2550,"Ġtake":2551,"Ġdeny":2552,"ĠBuffer":2553,"Ġflood":2554,"63":2555,"ION":2556,"Path":2557,"SC":2558,"bject":2559,"iance":2560,"press":2561,"svc":2562,"tes":2563,"write":2564,"xLAN":2565,"isibility":2566,"Ġclick":2567,"ĠSource":2568,"Ġeq":2569,"ĠPhysical":2570,"urrent":2571,"ames":2572,"Ġdecapsul":2573,"Ġ3000":2574,"Ġ50":2575,"Ġlever":2576,"Ġprovided":2577,"Ġperformed":2578,"Ġdetail":2579,"retch":2580,"ĠOverview":2581,"Ġimplementation":2582,"Ġdepicted":2583,"ĠCLI":2584,"Ġsequence":2585,"Out":2586,"Type":2587,"oin":2588,"Ġsoc":2589,"Ġcould":2590,"ĠSupport":2591,"lectors":2592,"Ġsimpl":2593,"Ġexpected":2594,"Ġrecommended":2595,"52":2596,"80":2597,"availability":2598,"tt":2599,"Ġsome":2600,"Ġbias":2601,"Ġdiagram":2602,"Ġmap":2603,"ĠOptions":2604,"Ġinterconnect":2605,"ĠProvisioning":2606,"ependent":2607,"GMT":2608,"GMP":2609,"LO":2610,"cent":2611,"ĠIm":2612,"Ġisol":2613,"Ġdelay":2614,"ols":2615,"ĠRange":2616,"Ġprob":2617,"endor":2618,"abled":2619,"Ġunicastroute":2620,"ĠEnable":2621,"Ġ30001":2622,"Ġconsists":2623,"Ġbrid":2624,"Ġmessage":2625,"cryption":2626,"FM":2627,"LA":2628,"LEAF":2629,"Ġ]":2630,"Ġown":2631,"ĠVxLAN":2632,"ĠNE":2633,"Ġline":2634,"ĠUG":2635,"ĠUser":2636,"Ġauthorization":2637,"ually":2638,"Ġcontroller":2639,"Ġrestore":2640,"multi":2641,"OUR":2642,"TYPE":2643,"Below":2644,"Layer":2645,"OD":2646,"PS":2647,"ater":2648,"Ġcases":2649,"Ġcheck":2650,"ĠSim":2651,"ĠTable":2652,"ĠCalico":2653,"105":2654,"umbers":2655,"141":2656,"Ġindividual":2657,"Ġautomat":2658,"Ġminim":2659,"party":2660,"Define":2661,"Me":2662,"SOUR":2663,"bu":2664,"fo":2665,"hip":2666,"hone":2667,"type":2668,"icens":2669,"ĠTh":2670,"ĠLanguage":2671,"ifies":2672,"Ġconnection":2673,"ĠHTTP":2674,"Ġ95":2675,"AZs":2676,"Ġ6500":2677,"Ġcapability":2678,"ĠFirewalls":2679,"Ġsimilar":2680,"Ġoperational":2681,"Ġensures":2682,"aaa":2683,"Ġfunctionality":2684,"RAPED":2685,"SCRAPED":2686,"SOURCE":2687,"HCP":2688,"ai":2689,"aware":2690,"Ġscale":2691,"Ġcore":2692,"abit":2693,"iles":2694,"ĠLS":2695,"ĠMS":2696,"ĠEndpoint":2697,"Ġprogramm":2698,"plic":2699,"andom":2700,"Ġdefin":2701,"ights":2702,"Ġrequirement":2703,"Ġuplink":2704,"Ġmapped":2705,"arks":2706,"Ġcarry":2707,"Ġsignal":2708,"Ġkey":2709,"ertificate":2710,"DMA":2711,"Ġsessions":2712,"84":2713,"An":2714,"CS":2715,"Re":2716,"Ġafter":2717,"reate":2718,"ont":2719,"ndfc":2720,"lot":2721,"access":2722,"cod":2723,"urst":2724,"ĠFlows":2725,"160":2726,"Ġgr":2727,"izes":2728,"SECT":2729,"ĠStretched":2730,"ĠAdministration":2731,"Ġcauses":2732,"Ġaggreg":2733,"Ġbehav":2734,"ĠRoCEv":2735,"SECTION":2736,"53":2737,"DT":2738,"bgp":2739,"not":2740,"Ġreference":2741,"ĠPolicies":2742,"ĠMVPN":2743,"Ġhop":2744,"Ġord":2745,"Ġchang":2746,"Ġcontin":2747,"switchport":2748,"ĠGPUs":2749,"Ġtraditional":2750,"ĠGigabit":2751,"Ġtechnology":2752,"Ġdescribed":2753,"72":2754,"Block":2755,"If":2756,"pact":2757,"Ġ+":2758,"ĠAP":2759,"Ġcontract":2760,"Ġeas":2761,"uppress":2762,"forward":2763,"ĠInt":2764,"Ġ48":2765,"ĠCongestion":2766,"yslog":2767,"ĠExt":2768,"Ġplatforms":2769,"Ġabout":2770,"Multicast":2771,"Ġrespective":2772,"Ġpurposes":2773,"ethod":2774,"Ġcent":2775,"Ġwant":2776,"205":2777,"ĠObject":2778,"Ġspeed":2779,"OSP":2780,"Ġyour":2781,"IPv":2782,"Ġenables":2783,"Ġmany":2784,"Ġdropp":2785,"Spine":2786,"ĠDownload":2787,"ĠReader":2788,"ADIUS":2789,"EVPN":2790,"Egress":2791,"ISE":2792,"RED":2793,"fmc":2794,"gor":2795,"Ġsvc":2796,"Ġ11":2797,"Ġdot":2798,"ĠVal":2799,"ĠSummary":2800,"ĠSlot":2801,"ipv":2802,"Ġ33":2803,"Ġmultisite":2804,"Ġimpact":2805,"ables":2806,"ĠRouter":2807,"Ġlocally":2808,"ĠDCGW":2809,"ĠASICs":2810,"Ġpartic":2811,"ĠSSH":2812,"Ġversion":2813,"DF":2814,"HTTP":2815,"ey":2816,"tcp":2817,"ons":2818,"Ġbas":2819,"anel":2820,"Ġmention":2821,"Ġread":2822,"ĠDrop":2823,"ĠDHCP":2824,"ĠECMP":2825,"Ġbefore":2826,"ecess":2827,"ĠInternal":2828,"ĠComp":2829,"--------------------------------":2830,"Ġallocation":2831,"ĠDetails":2832,"plicit":2833,"HR":2834,"pc":2835,"Ġz":2836,"Ġtemplate":2837,"enef":2838,"Ġfrequ":2839,"Ġcurrent":2840,"any":2841,"ĠTBD":2842,"ĠIGMP":2843,"ĠPer":2844,"routes":2845,"104":2846,"Ġlike":2847,"9300":2848,"ower":2849,"ands":2850,"ift":2851,"Ġdefine":2852,"Ġfollows":2853,"Ġimportant":2854,"ĠLogical":2855,"Ġscenarios":2856,"Ġlocation":2857,"Ġinitial":2858,"LAY":2859,"multihop":2860,"ĠAPI":2861,"400":2862,"Flow":2863,"IMC":2864,"Ġtree":2865,"ince":2866,"Ġtot":2867,"aster":2868,"ĠIGP":2869,"ĠPl":2870,"Ġ202":2871,"Ġthree":2872,"202":2873,"Ġanother":2874,"Ġgre":2875,"Ġremo":2876,"served":2877,"Ġreceiving":2878,"indow":2879,"ellig":2880,"Ġcreated":2881,"Ġdistribution":2882,"Ġpairs":2883,"Ġetc":2884,"Service":2885,"Ġcustomer":2886,"Ġscalability":2887,"External":2888,"All":2889,"earn":2890,"Ġattributes":2891,"Ġworkloads":2892,"Ġmentioned":2893,"73":2894,"MAC":2895,"ption":2896,"Ġenter":2897,"ors":2898,"ĠSlice":2899,"ĠIR":2900,"ĠAfter":2901,"Ġreaches":2902,"urther":2903,"Ġ22":2904,"203":2905,"Ġstretch":2906,"spanning":2907,"ĠWeb":2908,"Ġunicastadvertise":2909,"Ġchallenge":2910,"istribution":2911,"Ġplace":2912,"Ġcommunity":2913,"Ġevpnredistribute":2914,"ACLs":2915,"Ġ50001":2916,"Ġoriginal":2917,"cept":2918,"ĠiBGP":2919,"What":2920,"Ġhelp":2921,"hoso":2922,"icensing":2923,"Ġtotal":2924,"57":2925,"PP":2926,"Ġknown":2927,"Ġbfd":2928,"Ġmethod":2929,"ĠCP":2930,"ĠFile":2931,"Ġdec":2932,"---":2933,"Ġ36":2934,"Ġ37":2935,"emarks":2936,"spond":2937,"Ġseq":2938,"izing":2939,"Ġprevent":2940,"assive":2941,"Ġremaining":2942,"series":2943,"Ġbuilt":2944,"Ġinstead":2945,"commod":2946,"Ġ169":2947,"Ġtimeout":2948,"Conclusion":2949,"Ġallocated":2950,"Ġjoin":2951,"Channel":2952,"Ġillustrates":2953,"iety":2954,"Ġvariety":2955,"Ġautomatically":2956,"56":2957,"88":2958,"DD":2959,"Name":2960,"Sh":2961,"With":2962,"fab":2963,"rc":2964,"vPC":2965,"Ġic":2966,"Ġbit":2967,"Ġdest":2968,"Ġmat":2969,"Ġmanage":2970,"ĠNext":2971,"ĠNIC":2972,"ĠAg":2973,"Ġiss":2974,"ĠDescription":2975,"ĠMan":2976,"aging":2977,"Ġ35":2978,"Ġshare":2979,"Ġcannot":2980,"Ġpercent":2981,"ÂłÂłÂłÂłÂłÂłÂłÂłÂłÂłÂłÂł":2982,"âĹ¦":2983,"ĠQSFP":2984,"Ġ***":2985,"Ġassociate":2986,"Ġcreate":2987,"Ġencapsulation":2988,"ĠGroups":2989,"Ġcomplete":2990,"ĠINT":2991,"Ġbecomes":2992,"Ġsynchron":2993,"Ġdiscussed":2994,"ĠNETCONF":2995,"ursts":2996,"77":2997,"Data":2998,"SM":2999,"line":3000,"sn":3001,"security":3002,"time":3003,"ĠZ":3004,"Ġaction":3005,"Ġcost":3006,"Ġret":3007,"Ġefficient":3008,"Ġ230":3009,"Ġ2200":3010,"Ġthird":3011,"aming":3012,"ceed":3013,"Ġvpn":3014,"Ġbytes":3015,"Ġredirection":3016,"istributed":3017,"ĠRelease":3018,"Ġtransmit":3019,"Ġsimple":3020,"Admin":3021,"Ġcoun":3022,"Multi":3023,"Ġsteps":3024,"Log":3025,"ecessary":3026,"75":3027,"FIO":3028,"doc":3029,"ew":3030,"gw":3031,"ology":3032,"uis":3033,"Ġslices":3034,"ĠNumber":3035,"ĠPaper":3036,"ĠBy":3037,"stand":3038,"Ġproper":3039,"udp":3040,"ĠConsid":3041,"135":3042,"vertised":3043,"ÂłÂłÂłÂłÂłÂłÂłÂłÂł":3044,"ÂłÂłÂłÂłÂłÂłÂłÂłÂłÂłÂł":3045,"Ġupd":3046,"rives":3047,"Ġdesigned":3048,"Configure":3049,"aving":3050,"Ġpoints":3051,"Ġdrops":3052,"istinguis":3053,"Ġbound":3054,"Ġpurpose":3055,"ĠSPAN":3056,"Ġcorrespond":3057,"Ġoccur":3058,"ĠUNDERLAY":3059,"Ġicmp":3060,"ID":3061,"UI":3062,"West":3063,"ez":3064,"flex":3065,"over":3066,"vous":3067,"vanced":3068,"Ġnorth":3069,"ĠTotal":3070,"ĠRADIUS":3071,"9332":3072,"Ġexist":3073,"ĠUse":3074,"Ġprovision":3075,"Ġouter":3076,"probe":3077,"Ġ80":3078,"ĠPortal":3079,"Ġcommunicate":3080,"subnetmaximum":3081,"DCI":3082,"Ġresults":3083,"ĠWhite":3084,"ART":3085,"ezvous":3086,"BGW":3087,"cloud":3088,"gth":3089,"king":3090,"ling":3091,"rm":3092,"encapsul":3093,"Ġcrit":3094,"Ġbenef":3095,"lover":3096,"Ġmain":3097,"uplic":3098,"update":3099,"Ġview":3100,"ocus":3101,"ersion":3102,"Ġconnections":3103,"ĠGu":3104,"Ġinstalled":3105,"Ġsender":3106,"Ġtenants":3107,"Ġdomains":3108,"vention":3109,"ĠBackup":3110,"Ġamong":3111,"ailover":3112,"commodate":3113,"docs":3114,"110":3115,"AFD":3116,"END":3117,"NX":3118,"PIM":3119,"SR":3120,"ges":3121,"tp":3122,"Ġeff":3123,"ĠRDMA":3124,"Ġlabel":3125,"Ġenfor":3126,"ecause":3127,"ĠInst":3128,"opology":3129,"240":3130,"Ġrandom":3131,"Ġprovisioning":3132,"149":3133,"Ġforwarded":3134,"Ġreceives":3135,"Control":3136,"Ġframes":3137,"Ġability":3138,"aneous":3139,"clusive":3140,"START":3141,"XXXX":3142,"ĠPrimary":3143,"ermine":3144,"onomous":3145,"uppression":3146,"elligent":3147,"701":3148,"Ap":3149,"Aut":3150,"IT":3151,"NWS":3152,"OM":3153,"Po":3154,"Source":3155,"Target":3156,"lag":3157,"uch":3158,"Ġfls":3159,"ĠTime":3160,"ĠNet":3161,"Ġ2100":3162,"ultaneous":3163,"Ġalread":3164,"Ġcompute":3165,"epbr":3166,"Info":3167,"Ġsetting":3168,"ĠEnvironment":3169,"ducts":3170,"Ġcause":3171,"Ġrecommend":3172,"Ġflexibility":3173,"egal":3174,"Ġbehavior":3175,"Ġdestined":3176,"Ġalready":3177,"49":3178,"66":3179,"De":3180,"ECN":3181,"Lite":3182,"OOB":3183,"UDP":3184,"bm":3185,"gether":3186,"me":3187,"mall":3188,"Ġcop":3189,"Ġ128":3190,"Ġder":3191,"Ġdat":3192,"Ġnumbers":3193,"Ġmark":3194,"ĠVIP":3195,"ĠAvailable":3196,"Ġrele":3197,"ĠMDT":3198,"Ġconnecting":3199,"Ġoverall":3200,"Inter":3201,"ĠWork":3202,"ĠRece":3203,"Ġperforms":3204,"Ġclaus":3205,"Ġtransl":3206,"anguages":3207,"Ġvalues":3208,"Ġoptimal":3209,"Ġgets":3210,"Ġexchange":3211,"Ġorder":3212,"Ġfrequency":3213,"Ġclauses":3214,"AT":3215,"Cluster":3216,"FW":3217,"Free":3218,"MGS":3219,"Tenant":3220,"interfaces":3221,"ength":3222,"Ġfilter":3223,"Ġcloud":3224,"Ġdynamic":3225,"Ġinv":3226,"ality":3227,"ĠDNS":3228,"stor":3229,"Ġproduction":3230,"ards":3231,"elay":3232,"ained":3233,"mgsfw":3234,"ĠWRED":3235,"Ġfollow":3236,"Ġforwards":3237,"Ġinstances":3238,"Ġindependent":3239,"ĠNVMe":3240,"Ġautomation":3241,"Ġcomponents":3242,"Server":3243,"priority":3244,"ĠAppl":3245,"ĠINF":3246,"Ġpersistent":3247,"Ġequal":3248,"Ġreplace":3249,"Ġcorresponding":3250,"OR":3251,"Security":3252,"SCP":3253,"South":3254,"ll":3255,"send":3256,"xy":3257,"Ġ----":3258,"ref":3259,"Ġsumm":3260,"ices":3261,"Ġreferen":3262,"ĠCIMC":3263,"ters":3264,"Ġcond":3265,"ĠLanguages":3266,"ĠPDF":3267,"Ġalong":3268,"Ġstr":3269,"Ġgu":3270,"ĠUCS":3271,"troduction":3272,"Ġsele":3273,"242":3274,"111":3275,"obe":3276,"ĠAdobe":3277,"Ġimply":3278,"server":3279,"Ġ9332":3280,"Ġhere":3281,"Ġconsum":3282,"Ġ30002":3283,"Ġlisted":3284,"Ġblocks":3285,"ilding":3286,"Ġbring":3287,"ĠNotification":3288,"Ġreferred":3289,"uplicate":3290,"Ġsummar":3291,"Bu":3292,"It":3293,"Sec":3294,"Use":3295,"gu":3296,"sights":3297,"wh":3298,"ĥčĊ":3299,"Ġage":3300,"ernet":3301,"Ġslice":3302,"Ġfact":3303,"Ġpod":3304,"Ġmt":3305,"ĠSNS":3306,"coun":3307,"Ġebgp":3308,"ĠDefine":3309,"ĠBLK":3310,"ĠMonitoring":3311,"ĠFeature":3312,"ĠRFC":3313,"Ġexpl":3314,"items":3315,"ĠOPS":3316,"Ġconfiguring":3317,"Ġsharing":3318,"ĠUsing":3319,"sequ":3320,"Ġaccommodate":3321,"ubernet":3322,"Ġleast":3323,"Ġsets":3324,"ĠSpines":3325,"active":3326,"cluding":3327,"Ġpool":3328,"ĠAllow":3329,"Ġvalid":3330,"indle":3331,"Why":3332,"Ġmanaged":3333,"ĠTherefore":3334,"ĠRequired":3335,"worker":3336,"Ġpractice":3337,"ĠClass":3338,"ĠGigabitEthernet":3339,"ubernetes":3340,"AA":3341,"Mgmt":3342,"SS":3343,"Un":3344,"td":3345,"Ġtermin":3346,"Ġfull":3347,"Ġfocus":3348,"Ġcertificate":3349,"ules":3350,"ured":3351,"ĠMedia":3352,"stat":3353,"Ġhard":3354,"ecut":3355,"Ġ47":3356,"Ġ60":3357,"Ġwhat":3358,"ĠMultisite":3359,"riven":3360,"Ġassum":3361,"products":3362,"Ġdetermine":3363,"Ġattach":3364,"ĠYou":3365,"ĠOpenConfig":3366,"Ġbuilding":3367,"Ġbecome":3368,"Ġadjacency":3369,"Ġaggregation":3370,"ĠComponents":3371,"lags":3372,"38":3373,"EM":3374,"Group":3375,"Pr":3376,"Rout":3377,"VTEP":3378,"ral":3379,"raf":3380,"Ġsche":3381,"Ġday":3382,"Ġmonitoring":3383,"abase":3384,"ĠSites":3385,"ĠSlices":3386,"ili":3387,"âĢĥčĊ":3388,"ĠFLS":3389,"ides":3390,"108":3391,"ĠOffic":3392,"Ġstill":3393,"iform":3394,"ĠAdvertised":3395,"Ġ65103":3396,"Ġsettings":3397,"ough":3398,"ĠQty":3399,"Ġthroughput":3400,"221":3401,"byte":3402,"999":3403,"peri":3404,"ĠACLs":3405,"Address":3406,"Ġpreviously":3407,"Ġhelps":3408,"Ġachieved":3409,"ĠArchitecture":3410,"ĠSFPs":3411,"Ġdetailed":3412,"coded":3413,"Core":3414,"Legal":3415,"cul":3416,"ld":3417,"ris":3418,"ture":3419,"ĠJ":3420,"Ġtab":3421,"Ġtest":3422,"Ġpause":3423,"Ġoften":3424,"ĠBond":3425,"unication":3426,"ections":3427,"api":3428,"coming":3429,"ĠGUI":3430,"Ġ56":3431,"logies":3432,"Ġclient":3433,"ifying":3434,"ĠKey":3435,"Ġunderstand":3436,"bership":3437,"Ġscalable":3438,"vantage":3439,"ĠCommunication":3440,"Ġachieve":3441,"ĠStatic":3442,"ĠSecure":3443,"Comm":3444,"Ġdropped":3445,"60":3446,"61":3447,"69":3448,"Sample":3449,"de":3450,"gine":3451,"iated":3452,"nx":3453,"ned":3454,"Ġk":3455,"inter":3456,"Ġ19":3457,"etter":3458,"Ġnow":3459,"Ġmet":3460,"Ġ102":3461,"ĠAss":3462,"ĠCap":3463,"ĠClick":3464,"Ġear":3465,"ĠDB":3466,"ĠDiscovery":3467,"ĠMGMT":3468,"Ġtrap":3469,"herit":3470,"133":3471,"Ġopen":3472,"Ġdesignated":3473,"Ġ2301":3474,"Ġsuccess":3475,"ĠConfigure":3476,"Ġmake":3477,"dcgw":3478,"prepend":3479,"Ġregions":3480,"ĠToR":3481,"Ġtrademarks":3482,"Ġ2015":3483,"Ġdepending":3484,"ĠTransport":3485,"tilization":3486,"ĠImage":3487,"gorith":3488,"ĠPlatform":3489,"ĠZone":3490,"225":3491,"74":3492,"81":3493,"Design":3494,"ET":3495,"NBM":3496,"Normal":3497,"Qin":3498,"Underlay":3499,"den":3500,"pip":3501,"sub":3502,"icro":3503,"enancy":3504,"Ġfour":3505,"Ġfair":3506,"Ġpay":3507,"Ġpub":3508,"Ġbetter":3509,"Ġnecessary":3510,"Ġwindow":3511,"ĠTyp":3512,"Ġ29":3513,"mental":3514,"ĠEBGP":3515,"export":3516,"Ġ34":3517,"Ġstorm":3518,"ĠInband":3519,"hernet":3520,"Ġ443":3521,"136":3522,"anged":3523,"Ġlead":3524,"Ġ655":3525,"ĠExample":3526,"lists":3527,"ĠYes":3528,"Ġethernet":3529,"Ġtakes":3530,"Ġselected":3531,"Ġmove":3532,"grade":3533,"Ġdecapsulates":3534,"bucket":3535,"OSPF":3536,"Ġinvol":3537,"Ġpayload":3538,"220":3539,"MS":3540,"PFC":3541,"RU":3542,"Red":3543,"cies":3544,"filter":3545,"network":3546,"system":3547,"tmp":3548,"Ġtcp":3549,"ern":3550,"ering":3551,"Ġsmall":3552,"encies":3553,"itions":3554,"Ġfailover":3555,"Ġptmp":3556,"Ġdistinguis":3557,"Ġtogether":3558,"Ġwere":3559,"ĠVersion":3560,"ĠScal":3561,"ade":3562,"ĠCreate":3563,"ĠLicensing":3564,"Ġ21":3565,"ĠMM":3566,"Ġbel":3567,"ĠFab":3568,"ender":3569,"arent":3570,"backup":3571,"crim":3572,"services":3573,"Ġchange":3574,"ĠDCN":3575,"conf":3576,"ĠAny":3577,"Ġsimultaneous":3578,"Ġroot":3579,"ĠLogCollector":3580,"Ġactiv":3581,"ietf":3582,"Ġattribute":3583,"Ġflexible":3584,"ĠUntagged":3585,"ĠValue":3586,"ĠCPU":3587,"ĠAgent":3588,"ĠConsiderations":3589,"ĠReceived":3590,"white":3591,"ĠOffice":3592,"443":3593,"50":3594,"67":3595,"85":3596,"IF":3597,"Set":3598,"TU":3599,"block":3600,"nm":3601,"pag":3602,"Ġdone":3603,"Ġinner":3604,"ently":3605,"ĠSolution":3606,"ĠNaming":3607,"Ġconver":3608,"ĠPOAP":3609,"ĠFX":3610,"Ġdel":3611,"Ġenviron":3612,"Ġexceed":3613,"ĠProfile":3614,"ĠExcep":3615,"Ġenabling":3616,"Ġroles":3617,"Ġ50002":3618,"Ġappropr":3619,"ĠOnly":3620,"Ġboot":3621,"ilarly":3622,"ĠSecond":3623,"Ġlossless":3624,"Ġoffers":3625,"Ġenvironments":3626,"Ġappropriate":3627,"214":3628,"82":3629,"87":3630,"At":3631,"After":3632,"BMC":3633,"Destination":3634,"Each":3635,"FLS":3636,"HOS":3637,"iBGP":3638,"rea":3639,"atal":3640,"Ġside":3641,"Ġsections":3642,"Ġfo":3643,"Ġpot":3644,"Ġintra":3645,"lobal":3646,"Ġtop":3647,"ĠVisibility":3648,"ĠAtt":3649,"ĠCatal":3650,"ĠPers":3651,"ĠRest":3652,"acking":3653,"Ġvn":3654,"Ġalgorith":3655,"Ġenh":3656,"Ġprofile":3657,"Ġstud":3658,"ession":3659,"ĠHardware":3660,"Ġautonomous":3661,"ĠGW":3662,"Ġspecified":3663,"Ġbucket":3664,"Ġbackend":3665,"Ġpriority":3666,"Ġobject":3667,"ĠAddressing":3668,"Ġ50000":3669,"Ġexpans":3670,"Ġconsidered":3671,"Ġconsiderations":3672,"Ġkeep":3673,"Ġredundant":3674,"ĠRedirection":3675,"ĠDownlinks":3676,"ertificates":3677,"Ġmeans":3678,"ĠUplinks":3679,"Ġbridging":3680,"Ġdefinition":3681,"Ġreturn":3682,"LogCollector":3683,"Ġdatabase":3684,"Ġreferenced":3685,"HOSO":3686,"Ġpotential":3687,"ĠCatalyst":3688,"LD":3689,"Node":3690,"Op":3691,"Ro":3692,"Se":3693,"cord":3694,"go":3695,"iver":3696,"iances":3697,"later":3698,"nbm":3699,"Ġer":3700,"Ġsources":3701,"Ġ110":3702,"Ġbal":3703,"ancing":3704,"admin":3705,"Ġreal":3706,"Ġreverse":3707,"ĠEd":3708,"ĠRef":3709,"Ġtra":3710,"Ġpropag":3711,"ifier":3712,"elf":3713,"241":3714,"ĠGX":3715,"erest":3716,"collater":3717,"Ġsetup":3718,"Ġadvertises":3719,"ĠQOS":3720,"Ġensuring":3721,"ĠAuto":3722,"Add":3723,"Ġinterest":3724,"Challenge":3725,"Ġlimited":3726,"Ġmessages":3727,"ĠRegion":3728,"Ġchanges":3729,"Ġbenefits":3730,"Ġenforced":3731,"raft":3732,"collateral":3733,"600":3734,"79":3735,"POAP":3736,"Using":3737,"fil":3738,"section":3739,"Ġtables":3740,"iness":3741,"row":3742,"Ġbursts":3743,"alth":3744,"about":3745,"ĠSuper":3746,"Ġ1000":3747,"ĠILO":3748,"Ġrewrite":3749,"Ġreserved":3750,"ĠDst":3751,"ĠMod":3752,"ĠEast":3753,"Ġdeep":3754,"ipul":3755,"ollo":3756,"Ġhig":3757,"Ġhash":3758,"161":3759,"ĠOther":3760,"ĠInsights":3761,"There":3762,"Ġsever":3763,"velo":3764,"pool":3765,"ains":3766,"ĠServers":3767,"Interface":3768,"Ġredistribute":3769,"emplates":3770,"Ġredirected":3771,"ximate":3772,"Ġentire":3773,"Ġfront":3774,"Ġable":3775,"Ġincreased":3776,"Ġlocated":3777,"Ġestablished":3778,"Ġagain":3779,"3004":3780,"ĠRequire":3781,"ESTCONF":3782,"Ġchoice":3783,"SGT":3784,"Ġleveraging":3785,"Ġparticular":3786,"HTTPS":3787,"Shift":3788,"Ġnorthbound":3789,"Ġpublic":3790,"ĠTypes":3791,"113":3792,"210":3793,"39":3794,"=\"":3795,"Aware":3796,"Gen":3797,"Port":3798,"TACACS":3799,"VR":3800,"Vlan":3801,"Virtual":3802,"bandwidth":3803,"hardware":3804,"med":3805,"ns":3806,"nic":3807,"ped":3808,"tection":3809,"xlan":3810,"Ġib":3811,"reverse":3812,"Ġsex":3813,"enu":3814,"Ġpaper":3815,"Ġbl":3816,"Ġbp":3817,"acial":3818,"Ġmac":3819,"ilit":3820,"ĠPIP":3821,"ollowing":3822,"ĠRFP":3823,"Ġenforce":3824,"econom":3825,"Ġstrives":3826,"Ġorient":3827,"Ġgender":3828,"ĠInclusive":3829,"ĠUs":3830,"115":3831,"Ġracial":3832,"Ġimpro":3833,"ioeconom":3834,"Internal":3835,"Ġ6501":3836,"...":3837,"Ġforwardipv":3838,"ĠMPLS":3839,"Ġintersection":3840,"Ġcapable":3841,"Ġdisability":3842,"Ġdiscrim":3843,"Ġautoaddress":3844,"Ġencapsulates":3845,"Ġhighl":3846,"Ġredirectsip":3847,"Ġimplemented":3848,"Ġweb":3849,"multisite":3850,"Ġmemory":3851,"Ġlonger":3852,"Ġethnic":3853,"Ġsocioeconom":3854,"Ġproble":3855,"ĠUsername":3856,"Ġcenters":3857,"Ġmatches":3858,"Ġissues":3859,"Ġfollowed":3860,"Ġmtu":3861,"Ġhardcoded":3862,"ĠExceptions":3863,"Ġsexual":3864,"Ġorientation":3865,"Ġintersectionality":3866,"Ġdiscrimination":3867,"Ġsocioeconomic":3868,"83":3869,"Cs":3870,"Dynamic":3871,"document":3872,"hom":3873,"lb":3874,"pective":3875,"Ġtelemetry":3876,"Ġaff":3877,"inning":3878,"lephant":3879,"Ġdiscovery":3880,"Ġnormal":3881,"igg":3882,"arm":3883,"ĠNorth":3884,"Ġreas":3885,"ĠPC":3886,"ĠDPP":3887,"ĠMTU":3888,"ĠEther":3889,"204":3890,"ĠThey":3891,"location":3892,"Ġ54":3893,"Ġ98":3894,"Ġunn":3895,"Ġprefer":3896,"efined":3897,"Ġapplies":3898,"ĠProduction":3899,"OBJ":3900,"Ġ9364":3901,"ĠOperations":3902,"Ġinstall":3903,"configured":3904,"Ġstatistics":3905,"Ġclassified":3906,"TCH":3907,"Ġcreation":3908,"9500":3909,"Ġcomplex":3910,"ĠOpenShift":3911,"Ġsignific":3912,"Ġbehind":3913,"ermes":3914,"Ġfacilit":3915,"Ġboundary":3916,"Ġibgp":3917,".,":3918,"Link":3919,"LRI":3920,"RPC":3921,"Route":3922,"VM":3923,"bit":3924,"bfd":3925,"egr":3926,"og":3927,"vpc":3928,"Ġavailability":3929,"inc":3930,"replication":3931,"Ġsummary":3932,"icates":3933,"ense":3934,"Ġfails":3935,"Ġpower":3936,"aly":3937,"ĠCh":3938,"cope":3939,"ĠBecause":3940,"ĠRACL":3941,"2026":3942,"9336":3943,"Ġhapp":3944,"Ġexamples":3945,"ĠOr":3946,"ĠInterfaces":3947,"open":3948,"endpoint":3949,"Ġseries":3950,"ubles":3951,"Ġleg":3952,"ÂłÂłÂłÂłÂłÂłÂłÂłÂłÂł":3953,"Ġappliances":3954,"traffic":3955,"Ġ1792":3956,"Ġclusters":3957,"dcn":3958,"VNIs":3959,"Ġautovni":3960,"Ġidentifies":3961,"Ġshutdownmtu":3962,"Ġautomated":3963,"ĠRole":3964,"ĠSharing":3965,"Ġgenerate":3966,"Only":3967,"Enable":3968,"Ġadjacencies":3969,"Ġchoose":3970,"grades":3971,"ĠResources":3972,"Ġintegrated":3973,"ĠISIS":3974,"ĠAdvertisement":3975,"ĠRegions":3976,"ĠSubnets":3977,"Ġflooding":3978,"Ġminimum":3979,"Ġupdates":3980,"Ġderived":3981,"Ġrelevant":3982,"Ġsuccessful":3983,"blocking":3984,"Ġfound":3985,"Ġerr":3986,"documentation":3987,"608":3988,"AG":3989,"Learn":3990,"gged":3991,"nce":3992,"Ġ94":3993,"Ġ--------":3994,"Ġvery":3995,"reach":3996,"ero":3997,"Ġsuppression":3998,"ick":3999,"Ġfile":4000,"Ġpage":4001,"Ġincoming":4002,"Ġmand":4003,"Ġ101":4004,"Ġ103":4005,"ĠTarget":4006,"ĠNLRI":4007,"add":4008,"ilio":4009,"ĠPTP":4010,"ĠBias":4011,"idm":4012,"206":4013,"Ġnetworking":4014,"plit":4015,"ĠUtilization":4016,"tore":4017,"Ġ49":4018,"specific":4019,"Ġpermission":4020,"Ġconnects":4021,"ĠGuide":4022,"Ġright":4023,"145":4024,"ĠASM":4025,"2301":4026,"Ġmoreabout":4027,"ĠEncryption":4028,"ĠNATSample":4029,"iorit":4030,"avig":4031,"Ġ135":4032,"Ġphysically":4033,"olutions":4034,"Ġindust":4035,"Ġtypically":4036,"DCGW":4037,"Protocol":4038,"ĠCommand":4039,"Ġperspective":4040,"Ġsession":4041,"Ġsync":4042,"================================":4043,"ĠExtension":4044,"counting":4045,"Ġscheme":4046,"Ġbelong":4047,"Ġseveral":4048,"112":4049,"71":4050,"86":4051,"Calico":4052,"DN":4053,"Subnet":4054,"aut":4055,"amental":4056,"gence":4057,"sr":4058,"vm":4059,"inal":4060,"Ġsl":4061,"icense":4062,"Ġfew":4063,"ndezvous":4064,"alive":4065,"ĠSyn":4066,"ĠSrc":4067,"ĠICMP":4068,"ĠAvailability":4069,"Ġreco":4070,"ĠCN":4071,"ĠPassword":4072,"âĢĶ":4073,"Ġusage":4074,"ĠRT":4075,"Ġvisibility":4076,"Ġencryption":4077,"Ġexecut":4078,"chestr":4079,"undamental":4080,"Ġ90":4081,"Ġuntil":4082,"Ġnotification":4083,"Ġwhether":4084,"abling":4085,"ĠRoutes":4086,"ĠRouted":4087,"Ġcontrolled":4088,"off":4089,"ĠQu":4090,"ĠConfiguring":4091,"Ġtransit":4092,"ĠAlso":4093,"1792":4094,"ĠKubernetes":4095,"Ġdistribute":4096,"ĠLogging":4097,"Ġincreases":4098,"Ġtracking":4099,"elective":4100,"entials":4101,"hoot":4102,"Ġoperating":4103,"Ġadministrator":4104,"Ġadministrators":4105,"ĠAdditional":4106,"ĠOperational":4107,"Ġpractices":4108,"Ġintroduced":4109,"ĠIRB":4110,"ĠchallengeWhat":4111,"ĠInstall":4112,"Routing":4113,"ĠSecondary":4114,"Ġsignificant":4115,"ubleshoot":4116,"reachability":4117,"DCN":4118,"DNS":4119,"One":4120,"SN":4121,"Template":4122,"ax":4123,"gan":4124,"pfmc":4125,"ried":4126,"rhoso":4127,"sm":4128,"ton":4129,"ule":4130,"Ġ!":4131,"orld":4132,"Ġful":4133,"Ġfurther":4134,"Ġpat":4135,"Ġpfmc":4136,"lear":4137,"Ġ111":4138,"anned":4139,"usiness":4140,"arch":4141,"ĠSCP":4142,"ĠTree":4143,"ĠAt":4144,"Ġoffer":4145,"ĠLEAF":4146,"âĢĵ":4147,"ĠDistribution":4148,"ĠMem":4149,"ĠFTE":4150,"omation":4151,"162":4152,"ĠOne":4153,"ĠIPFM":4154,"ĠIntra":4155,"umb":4156,"ĠHat":4157,"131":4158,"Ġ512":4159,"Ġ904":4160,"box":4161,"Ġ65106":4162,"Ġhosted":4163,"ixed":4164,"Ġ256":4165,"ensity":4166,"Ġsending":4167,"Ġ701":4168,"222":4169,"Ġevpnaddress":4170,"Ġ150":4171,"ĠTaggged":4172,"osen":4173,"ĠKindle":4174,"Ġsystems":4175,"Ġthereby":4176,"Advertise":4177,"ĠOBS":4178,"horized":4179,"Ġcarried":4180,"allenges":4181,"ynamically":4182,"Ġlocations":4183,"ĠiP":4184,"Profil":4185,"ffers":4186,"vantages":4187,"Ġequip":4188,"ĠStatistics":4189,"Ġtechnologies":4190,"evpnvni":4191,"Ġrequests":4192,"Ġtimer":4193,"ĠAdvertisements":4194,"ĠMSD":4195,"Device":4196,"Priority":4197,"QinVNI":4198,"ĠEdge":4199,"openconfig":4200,"Ġindustry":4201,"59":4202,"901":4203,"902":4204,"Int":4205,"Per":4206,"cam":4207,"rix":4208,"sup":4209,"tag":4210,"Ġtre":4211,"Ġsolutions":4212,"ene":4213,"iti":4214,"Ġfive":4215,"roubleshoot":4216,"Ġban":4217,"Ġbits":4218,"Ġinput":4219,"anular":4220,"Ġtool":4221,"Ġtools":4222,"aced":4223,"Ġmask":4224,"ĠView":4225,"ĠSample":4226,"ĠSession":4227,"ĠNon":4228,"ĠAC":4229,"Ġrendezvous":4230,"ĠCustom":4231,"ĠParameters":4232,"ĠPhone":4233,"Ġ2001":4234,"ĠEP":4235,"Ġadvanced":4236,"idate":4237,"unning":4238,"Ġlast":4239,"Ġexperi":4240,"Ġstates":4241,"Ġmultit":4242,"Ġspanning":4243,"vered":4244,"ĠHead":4245,"142":4246,"ĠWAN":4247,"ribute":4248,"boarding":4249,"Ġcapture":4250,"ĠRPs":4251,"12800":4252,"Ġtherefore":4253,"Ġbutton":4254,"2002":4255,"Ġtypical":4256,"Ġconsistent":4257,"Ġincrease":4258,"Ġintelligent":4259,"know":4260,"onlyno":4261,"ĠSSX":4262,"Ġcorrect":4263,"Ġcontains":4264,"Ġtimes":4265,"Ġisolation":4266,"Ġisolated":4267,"ĠSimilarly":4268,"Ġeasy":4269,"Building":4270,"Ġconvergence":4271,"ĠRequirements":4272,"212":4273,"223":4274,"Ass":4275,"BLK":4276,"Deploy":4277,"FS":4278,"GC":4279,"MGMT":4280,"QSFP":4281,"Total":4282,"WDM":4283,"cluster":4284,"Ġsit":4285,"Ġpanel":4286,"Ġinbound":4287,"Ġinherit":4288,"action":4289,"ĠSW":4290,"ĠSAN":4291,"ĠCo":4292,"ĠCent":4293,"cost":4294,"ĠPath":4295,"ĠPACL":4296,"ĠPSN":4297,"ĠFrom":4298,"stream":4299,"uniform":4300,"ects":4301,"107":4302,"109":4303,"165":4304,"apter":4305,"Ġtrigg":4306,"antity":4307,"Ġcomput":4308,"formance":4309,"ternative":4310,"Ġrules":4311,"Ġprepend":4312,"ĠâĢĺ":4313,"trilio":4314,"642":4315,"ĠSpecific":4316,"Ġhealth":4317,"Ġ2302":4318,"Standard":4319,"Ġspecifically":4320,"ĠExamples":4321,"Ġlogging":4322,"Ġadvertisements":4323,"ĠĠĠĠĠĠĠĠĠĠĠĠ":4324,"ferences":4325,"ĠSGTs":4326,"urpose":4327,"Ġoriginated":4328,"ertain":4329,"Ġbox":4330,"ront":4331,"Ġ64642":4332,"ĠClient":4333,"ĠMSDP":4334,"Ġcounter":4335,"Ġprovisioned":4336,"Ġcritical":4337,"ĠNetApp":4338,"ĠAppliance":4339,"ĠRestore":4340,"Ġalgorithm":4341,"Ġ65011":4342,"Ġproblem":4343,"Ġsitu":4344,"62":4345,"78":4346,"BAC":4347,"EN":4348,"Firewall":4349,"Ind":4350,"Loc":4351,"MM":4352,"Management":4353,"Pre":4354,"case":4355,"defined":4356,"flows":4357,"lier":4358,"Ġtemplates":4359,"enance":4360,"Ġ112":4361,"anycast":4362,"Ġmade":4363,"ĠVer":4364,"ĠSub":4365,"ĠStore":4366,"ĠTelemetry":4367,"ĠTopology":4368,"ĠAud":4369,"ĠAction":4370,"Ġconst":4371,"ĠLimit":4372,"Ġ204":4373,"ĠRESTCONF":4374,"114":4375,"Ġauthent":4376,"Ġdefines":4377,"assis":4378,"vrfip":4379,"sole":4380,"Ġchannel":4381,"Ġbuffers":4382,"capability":4383,"Ġmakes":4384,"ĠSGs":4385,"atory":4386,"Ġdirectory":4387,"Ġworker":4388,"Ġreachable":4389,"Ġfailures":4390,"Ġelection":4391,"Ġlater":4392,"Ġoptimized":4393,"ĠSPIN":4394,"Ġcontainer":4395,"Ġrelated":4396,"Ġintegration":4397,"Ġcolle":4398,"Ġbasic":4399,"ĠAPIs":4400,"reflect":4401,"ĠFeatures":4402,"Ġhigher":4403,"ganization":4404,"umbered":4405,"193":4406,"219":4407,"41":4408,"DB":4409,"Ds":4410,"End":4411,"FT":4412,"Flags":4413,"Following":4414,"Match":4415,"RA":4416,"ake":4417,"driven":4418,"eam":4419,"fin":4420,"nat":4421,"vi":4422,"Ġudp":4423,"Ġtcam":4424,"onse":4425,"oriz":4426,"Ġsn":4427,"iting":4428,"Ġdisco":4429,"lore":4430,"alcul":4431,"acy":4432,"Ġmicro":4433,"asing":4434,"igr":4435,"Ġword":4436,"Ġwrite":4437,"aries":4438,"ĠSyslog":4439,"ĠSelective":4440,"Ġoffic":4441,"Ġforce":4442,"ĠLHR":4443,"ĠFirst":4444,"olum":4445,"ĠRHOSO":4446,"rict":4447,"Ġvis":4448,"Ġcomb":4449,"Ġseen":4450,"139":4451,"Ġrhoso":4452,"Ġappe":4453,"Ġ58":4454,"Ġ901":4455,"Introduction":4456,"143":4457,"ĠRouters":4458,"proxy":4459,"proximate":4460,"233":4461,"Ġwhereas":4462,"âĢĿ.":4463,"bls":4464,"Stack":4465,"ĠExp":4466,"Ġdetermin":4467,"dci":4468,"Ġtransfer":4469,"ship":4470,"Ġ161":4471,"Ġidentified":4472,"ĠGateways":4473,"Ġcreating":4474,"Ġcount":4475,"Ġjust":4476,"ĠOpenStack":4477,"Ġactual":4478,"Ġgenerated":4479,"Ġgoing":4480,"Ġoptional":4481,"Ġformat":4482,"Ġmechanisms":4483,"Ġrepresentation":4484,"Ġmodern":4485,"Ġreflectors":4486,"strap":4487,"Ġhandling":4488,"Ġquer":4489,"Ġmanaging":4490,"Ġstarts":4491,"Ġreduces":4492,"Ġmembership":4493,"Traffic":4494,"Ġintroduces":4495,"Ġlower":4496,"Ġprogrammed":4497,"Ġgreen":4498,"rmac":4499,"encapsulation":4500,"Ġrecommendation":4501,"ĠINFO":4502,"Ġearlier":4503,"ĠPersistent":4504,"ĠEtherChannel":4505,"Ġfully":4506,"*,":4507,".(":4508,"58":4509,"500":4510,"70":4511,"Am":4512,"Default":4513,"EP":4514,"LB":4515,"NAM":4516,"System":4517,"rack":4518,"scp":4519,"the":4520,"tics":4521,"vxlan":4522,"Ġtask":4523,"here":4524,"enabled":4525,"Ġpack":4526,"Ġpriv":4527,"Ġ120":4528,"Ġnet":4529,"Ġmgmt":4530,"Ġmonit":4531,"ĠSingle":4532,"ĠIOS":4533,"ĠAc":4534,"ilion":4535,"Ġel":4536,"ĠLearn":4537,"ĠElephant":4538,"ĠFair":4539,"ĠFull":4540,"lying":4541,"167":4542,"Ġexh":4543,"Ġ38":4544,"Ġorganization":4545,"ĠInfrastructure":4546,"endix":4547,"uming":4548,"126":4549,"located":4550,"ighted":4551,"vrfno":4552,"onds":4553,"ifferentiated":4554,"ĠMACsec":4555,"Ġplaced":4556,"API":4557,"ĠEngine":4558,"Ġmaking":4559,"avilion":4560,"Ġ180":4561,"Ġcreates":4562,"Ġassignment":4563,"Ġseconds":4564,"Ġcompletion":4565,"Ġrespons":4566,"Ġrepresented":4567,"Ġreflect":4568,"Ġversions":4569,"Ġtargets":4570,"Ġdisplays":4571,"Ġzone":4572,"ĠNextGen":4573,"static":4574,"interval":4575,"mediate":4576,"Ġbpdu":4577,"alytics":4578,"Ġerrors":4579,"Ġmandatory":4580,"Ġpattern":4581,"Ġappear":4582,"NAME":4583,"-<":4584,"211":4585,"217":4586,"Create":4587,"ITCH":4588,"MVPN":4589,"NAT":4590,"dis":4591,"dog":4592,"ifac":4593,"nv":4594,"ness":4595,"scrib":4596,"uck":4597,"head":4598,"eria":4599,"Ġdr":4600,"Ġdual":4601,"Ġntp":4602,"ĠSTP":4603,"Ġreload":4604,"ĠCVR":4605,"ĠLabel":4606,"ĠBased":4607,"ĠBroadcast":4608,"idel":4609,"ĠRPC":4610,"207":4611,"Ġless":4612,"Ġlength":4613,"163":4614,"Ġ31":4615,"Ġ39":4616,"ĠOEM":4617,"Ġasp":4618,"Ġglobal":4619,"Ġ41":4620,"intc":4621,"Ġ902":4622,"147":4623,"Ġ65102":4624,"Ġupstream":4625,"vrfvni":4626,"Ġappliance":4627,"serve":4628,"ĠTrap":4629,"2302":4630,"ensions":4631,"Ġadding":4632,"Ġitself":4633,"9999":4634,"Ġdoesn":4635,"ĠKB":4636,"ĠAuthorization":4637,"Ġutilized":4638,"Ġutilize":4639,"Ġadministration":4640,"cepts":4641,"prise":4642,"Ġdownload":4643,"ĠScenarios":4644,"ĠApollo":4645,"Ġcustomers":4646,"ĠRedund":4647,"xxx":4648,"grammability":4649,"ĠBackend":4650,"Ġstandards":4651,"ĠLinks":4652,"ĠPrefixes":4653,"Ġhandle":4654,"Ġexchanged":4655,"Ġreduce":4656,"Compute":4657,"Ġracks":4658,"Ġocc":4659,"balance":4660,"Ġ30004":4661,"Ġgranular":4662,"Ġparticip":4663,"Ġbasis":4664,"Ġ3700":4665,"snmp":4666,"ĠGuest":4667,"Authentication":4668,"Ġconditions":4669,"Ġconsumption":4670,"Ġsummarizes":4671,"reak":4672,"Additional":4673,"Profiler":4674,"ĠSWITCH":4675,"50000":4676,"Cl":4677,"Net":4678,"RL":4679,"VE":4680,"You":4681,"len":4682,"ount":4683,"por":4684,"rup":4685,"sive":4686,"scale":4687,"tunnel":4688,"vation":4689,"wide":4690,"heet":4691,"rev":4692,"Ġsince":4693,"Ġfut":4694,"Ġfault":4695,"Ġfixed":4696,"Ġcertain":4697,"Ġph":4698,"Ġdist":4699,"Ġduplicate":4700,"Ġdynamically":4701,"Ġmaster":4702,"Ġmigr":4703,"Ġwrit":4704,"arac":4705,"ĠNavig":4706,"ĠAnd":4707,"ĠPOD":4708,"ĠPanel":4709,"ĠDirection":4710,"ĠFlex":4711,"ĠRack":4712,"Ġproject":4713,"andbox":4714,"Ġshort":4715,"Ġ59":4716,"ÂłÂłÂłÂłÂłÂłÂłÂłÂłÂłÂłÂłÂłÂł":4717,"6400":4718,"ĠOper":4719,"Ġperforming":4720,"Ġdetection":4721,"Ġtransmission":4722,"Ġ153":4723,"Ġ1300":4724,"Ġ1800":4725,"chedul":4726,"Ġmatching":4727,"ĠConnection":4728,"Ġcompared":4729,"ASM":4730,"multicast":4731,"ĠApplication":4732,"Ġlimitations":4733,"Ġtunnels":4734,"ĠUpdate":4735,"ĠSelector":4736,"ĠLoopbacks":4737,"Ġfacing":4738,"Ġ65002":4739,"Ġzero":4740,"Ġdecision":4741,"Internet":4742,"Ġindependently":4743,"Ġselective":4744,"Ġ4789":4745,"endpoints":4746,"Ġconstruct":4747,"lorer":4748,"Ġfuture":4749,"47":4750,"76":4751,"ARP":4752,"ECT":4753,"Im":4754,"Ls":4755,"RAC":4756,"RADI":4757,"Topology":4758,"USP":4759,"VER":4760,"lib":4761,"mart":4762,"nT":4763,"paper":4764,"rs":4765,"scription":4766,"tive":4767,"with":4768,"Ġess":4769,"Ġtroubleshoot":4770,"Ġaware":4771,"Ġfiles":4772,"ansp":4773,"Ġmob":4774,"Ġmight":4775,"ĠSources":4776,"ĠTunnel":4777,"ĠIris":4778,"ĠCS":4779,"ĠList":4780,"ĠDF":4781,"ĠBo":4782,"ĠBandwidth":4783,"ĠEvery":4784,"ives":4785,"Ġdevelo":4786,"Ġadvantage":4787,"olve":4788,"imin":4789,"169":4790,"exist":4791,"excluding":4792,"Ġprot":4793,"Ġasymmetric":4794,"ĠUsed":4795,"ĠURL":4796,"achine":4797,"Ġ43":4798,"netconf":4799,"ntp":4800,"Ġ900":4801,"backend":4802,"front":4803,"ĠNetworking":4804,"144":4805,"Ġredistributed":4806,"ĠStep":4807,"ĠProtection":4808,"Ġchassis":4809,"Ġ88":4810,"Ġ800":4811,"Ġhence":4812,"4272":4813,"MPLS":4814,"Ġadds":4815,"ĠLocation":4816,"configuration":4817,"Ġindicates":4818,"Connect":4819,"ĠModel":4820,"Ġneighbors":4821,"Ġmultihop":4822,"ĠOnce":4823,"ĠIdentifier":4824,"Ġintended":4825,"Ġoriginating":4826,"Ġretrans":4827,"ĠPoint":4828,"Prod":4829,"Ġreflector":4830,"Ġ6400":4831,"Ġ30003":4832,"ĠSupports":4833,"Ġ65004":4834,"Ġcontinue":4835,"Ġcontracts":4836,"forwarder":4837,"Ġremoved":4838,"13568":4839,"Ġcriteria":4840,"Ġselection":4841,"Ġexplained":4842,"ralized":4843,"Ġmetric":4844,"Ġleading":4845,"Ġsmaller":4846,"Ġexceeds":4847,"Ġexpansion":4848,"going":4849,"Ġinterested":4850,"Ġpreferred":4851,"Ġ13568":4852,"srv":4853,"Ġoffice":4854,"RADIUSP":4855,"ansparent":4856,"!!":4857,")-":4858,"From":4859,"Please":4860,"RE":4861,"Support":4862,"ePBR":4863,"ivers":4864,"rt":4865,"rid":4866,"ven":4867,"Ġslow":4868,"eneration":4869,"itig":4870,"itive":4871,"Ġplease":4872,"Ġphone":4873,"allow":4874,"user":4875,"Ġmodes":4876,"Ġmuch":4877,"Ġwatch":4878,"ĠCode":4879,"ĠCase":4880,"ĠCCL":4881,"ĠCheck":4882,"ĠCertificates":4883,"Ġ(*,":4884,"Ġ203":4885,"ĠDat":4886,"ĠDay":4887,"ĠBFD":4888,"amp":4889,"ĠMob":4890,"iples":4891,"ider":4892,"idirection":4893,"Ġhaving":4894,"plies":4895,"Ġaddressing":4896,"ĠIntegr":4897,"optim":4898,"iber":4899,"osture":4900,"Ġ62":4901,"Ġapp":4902,"Ġunknown":4903,"ideo":4904,"ĠMultip":4905,"1499":4906,"Ġdeploying":4907,"Ġhosting":4908,"vrfaddress":4909,"Ġspecial":4910,"Ġchosen":4911,"Ġchallenges":4912,"Ġaccessing":4913,"redentials":4914,"ĠLoad":4915,"ĠLoss":4916,"Ġresili":4917,"Ġrob":4918,"Ġmanipul":4919,"Ġlogin":4920,"Ġ134":4921,"Ġworkflows":4922,"Ġautomate":4923,"Ġprocessing":4924,"Ġcaused":4925,"Ġretrie":4926,"Ġrepresents":4927,"Ġmoves":4928,"ĠWhile":4929,"Ġfailed":4930,"RIB":4931,"Ġ9500":4932,"ĠEndpoints":4933,"Ġcontinues":4934,"Ġfiltering":4935,"Ġcondition":4936,"guard":4937,"Ġdistinguisher":4938,"ĠScalability":4939,"ĠUsers":4940,"homed":4941,"ioritization":4942,"ĠAdditionally":4943,"ĠSPINE":4944,"Ġbpduguard":4945,"Ġoccup":4946,"aracter":4947,"idirectional":4948,"226":4949,"DRAC":4950,"Endpoint":4951,"Failure":4952,"LDAP":4953,"NTP":4954,"PIP":4955,"Super":4956,"alo":4957,"dig":4958,"eBGP":4959,"guide":4960,"iable":4961,"iBand":4962,"ki":4963,"lite":4964,"nost":4965,"soc":4966,"tm":4967,"wise":4968,"Ġ.":4969,"Ġteam":4970,"erved":4971,"atrix":4972,"Ġsil":4973,"isk":4974,"Ġfast":4975,"Ġfundamental":4976,"Ġcode":4977,"Ġctm":4978,"roid":4979,"robe":4980,"Ġpar":4981,"Ġpassive":4982,"Ġ115":4983,"Ġ114":4984,"Ġ117":4985,"Ġbls":4986,"Ġdup":4987,"Ġour":4988,"ĠSM":4989,"ĠSince":4990,"adi":4991,"ĠCertificate":4992,"Ġconvention":4993,"ĠLED":4994,"ĠPassive":4995,"ĠDell":4996,"ĠDynamic":4997,"ĠDiag":4998,"ĠDistributed":4999,"ĠDLB":5000,"aged":5001,"ĠFIO":5002,"ĠFHR":5003,"Ġdem":5004,"otion":5005,"otstrap":5006,"Ġusually":5007,"ĠRend":5008,"Ġlay":5009,"Ġlive":5010,"facing":5011,"Ġexcept":5012,"Ġste":5013,"oper":5014,"TER":5015,"Ġcomes":5016,"ership":5017,"Ġ42":5018,"ĠConvention":5019,"Ġselector":5020,"ĠHSM":5021,"1100":5022,"Ġ51":5023,"Ġ53":5024,"Ġ9100":5025,"Ġ908":5026,"Ġportion":5027,"ĠWe":5028,"Ġ65141":5029,"Ġredistribution":5030,"Ġoutbound":5031,"tracking":5032,"dule":5033,"protocol":5034,"ĠSpeed":5035,"ĠTrust":5036,"gmentation":5037,"Ġclustering":5038,"Ġ802":5039,"ĠOption":5040,"Ġ**":5041,"Ġ154":5042,"Ġqueues":5043,"Ġidentify":5044,"Ġcommunications":5045,"Ġhowever":5046,"Ġlearns":5047,"http":5048,"ierarch":5049,"096":5050,"While":5051,"Ġfunctionalities":5052,"Ġgoal":5053,"xxxx":5054,"Once":5055,"peering":5056,"missions":5057,"Ġperson":5058,"Ġmeet":5059,"Ġmeas":5060,"Ġreducing":5061,"workers":5062,"Ġdisplayed":5063,"ĠThird":5064,"ĠHTTPS":5065,"ĠHTTPs":5066,"Ġeffective":5067,"ĠINFRA":5068,"Ġobjects":5069,"cording":5070,"Ġagainst":5071,"Ġunnumbered":5072,"replicationmcast":5073,"Ġ9408":5074,"ĠCNP":5075,"Deployment":5076,"finiBand":5077,"orizon":5078,"idelines":5079,"RADIUSProbe":5080,"Ġrobust":5081,"nostics":5082,"ĠDiagnostics":5083,"ĠRendezvous":5084,"AL":5085,"Based":5086,"EE":5087,"ECMP":5088,"Fw":5089,"Last":5090,"Res":5091,"UST":5092,"XD":5093,"base":5094,"cor":5095,"day":5096,"ken":5097,"pb":5098,"pare":5099,"vendor":5100,"yang":5101,"Ġknow":5102,"eny":5103,"Ġcredentials":5104,"Ġpass":5105,"Ġ130":5106,"alle":5107,"Ġmill":5108,"Ġmitig":5109,"ĠSandbox":5110,"ĠAAA":5111,"ĠBase":5112,"ĠBoth":5113,"ams":5114,"ager":5115,"ĠFT":5116,"ĠFEX":5117,"unaware":5118,"93400":5119,"Ġvideo":5120,"Ġstructure":5121,"ife":5122,"ĠInfiniBand":5123,"oping":5124,"ĠUS":5125,"olicing":5126,"ĠCont":5127,"ĠGb":5128,"ĠGbps":5129,"Ġ52":5130,"Ġunified":5131,"Ġupgrade":5132,"Ġloopbacks":5133,"lected":5134,"Ġspecify":5135,"0800":5136,"ifications":5137,"Ġ152":5138,"172":5139,"DPP":5140,"Ġworks":5141,"Ġshutdownvrf":5142,"Ġencapsulate":5143,"ĠĠĠĠĠĠĠĠĠĠĠĠĠĠĠĠ":5144,"ĠOverall":5145,"Ġcover":5146,"Ġcausing":5147,"Ġconsistency":5148,"Ġedit":5149,"Ġincreasing":5150,"classification":5151,"ymmetry":5152,"Ġoperate":5153,"ĠISLs":5154,"ĠAdding":5155,"Ġ262":5156,"Ġprobing":5157,"Ġprogramming":5158,"Ġdefining":5159,"Ġcarrying":5160,"Ġgrant":5161,"Ġsynchronization":5162,"Ġsynchronize":5163,"Ġoccurs":5164,"Ġbrings":5165,"Secure":5166,"Ġfactors":5167,"ĠClassic":5168,"Ġattachment":5169,"Advertisement":5170,"Ġvisual":5171,"Ġpatterns":5172,"Ġessential":5173,"adius":5174,"39999":5175,"90":5176,"By":5177,"MI":5178,"Over":5179,"QDN":5180,"YY":5181,"cial":5182,"from":5183,"lated":5184,"limit":5185,"nq":5186,"packet":5187,"zen":5188,"Â®":5189,"Ġ#":5190,"Ġaim":5191,"inst":5192,"Ġsuper":5193,"Ġscope":5194,"Ġfind":5195,"Ġcall":5196,"rozen":5197,"Ġput":5198,"Ġplan":5199,"lely":5200,"Ġocp":5201,"acs":5202,"Ġmd":5203,"Ġmedia":5204,"asn":5205,"Ġwire":5206,"ĠSymmetric":5207,"ĠTOR":5208,"ĠNumbers":5209,"ĠNew":5210,"ĠCases":5211,"Ġconsole":5212,"ĠPurpose":5213,"urging":5214,"Ġ224":5215,"Ġthus":5216,"ĠDE":5217,"ĠDWDM":5218,"ĠMac":5219,"ĠMenu":5220,"uple":5221,"idir":5222,"ategor":5223,"ĠRet":5224,"ĠĠĠĠĠĠĠĠĠĠĠĠĠĠĠ":5225,"Ġhierarch":5226,"164":5227,"Ġvendor":5228,"Ġexit":5229,"Ġlogs":5230,"chedule":5231,"Ġstack":5232,"Ġsteer":5233,"256":5234,"Ġgrow":5235,"RFC":5236,"ĠUI":5237,"ibr":5238,"Ġserve":5239,"Ġ45":5240,"Ġ46":5241,"Ġseed":5242,"Ġselectors":5243,"posed":5244,"Ġaccording":5245,"Ġrat":5246,"Ġ96":5247,"Ġpreced":5248,"epalive":5249,"Ġcommonly":5250,"Infra":5251,"Ġapplic":5252,"Ġsupporting":5253,"Ġadvertising":5254,"ĠSpec":5255,"ĠSparse":5256,"key":5257,"ĠMultiSite":5258,"ĠQin":5259,"ĠLocator":5260,"Ġdetected":5261,"ĠComments":5262,"Ġinterval":5263,"shared":5264,"Ġattack":5265,"ĠRPM":5266,"andwich":5267,"apping":5268,"oneview":5269,"Ġ157":5270,"Ġmanually":5271,"ĠConfigurations":5272,"Ġsolely":5273,"ĠKVM":5274,"ĠAutomation":5275,"okia":5276,"Consid":5277,"------------------------":5278,"Ġhighly":5279,"Ġelements":5280,"Ġexpand":5281,"Ġ143":5282,"ĠLogin":5283,"Ġsubject":5284,"Ġsubsequ":5285,"eedback":5286,"Ġdownlink":5287,"ASN":5288,"Spines":5289,"ĠVMs":5290,"Ġfields":5291,"Ġmaintaining":5292,"ÂłÂłÂłÂłÂłÂłÂłÂłÂłÂłÂłÂłÂłÂłÂłÂłÂłÂłÂłÂłÂłÂłÂłÂł":5293,"ĠInternet":5294,"ĠCLOS":5295,"Ġrepresenting":5296,"ĠUpload":5297,"ĠStatus":5298,"Ġsequential":5299,"Ġiniti":5300,"Ġstored":5301,"Ġamount":5302,"Reference":5303,"Ġchanged":5304,"Ġdropping":5305,"Ġtransmitted":5306,"Ġproperly":5307,"ĠWorker":5308,"Ġassumes":5309,"ETF":5310,"Ġ65535":5311,"Ġstudy":5312,"RoCE":5313,"Ġpropagated":5314,"Ġreasons":5315,"Ġcomplexity":5316,"inciples":5317,"ĠSynchron":5318,"ĠQuantity":5319,"itiator":5320,"ĠCustomer":5321,"ĠEPL":5322,"Ġcollective":5323,"Ġprivile":5324,"Ġresponsible":5325,"Ġappears":5326,"ProfilerRADIUSProbe":5327,"ĠAndroid":5328,"Ġmobility":5329,"Ġsteered":5330,"allel":5331,"\">":5332,".)":5333,"301":5334,"::":5335,"CCL":5336,"Description":5337,"DSCP":5338,"IR":5339,"RC":5340,"Sim":5341,"drop":5342,"files":5343,"lation":5344,"man":5345,"such":5346,"ux":5347,"yond":5348,"inux":5349,"hes":5350,"onent":5351,"onth":5352,"org":5353,"Ġsymmetric":5354,"esh":5355,"ished":5356,"Ġclock":5357,"Ġcache":5358,"Ġcalcul":5359,"Ġ116":5360,"Ġbind":5361,"Ġnv":5362,"Ġmonth":5363,"Ġwide":5364,"ationship":5365,"ĠSome":5366,"ĠSuppression":5367,"Ġ105":5368,"Ġ108":5369,"ĠTbps":5370,"ĠNote":5371,"Ġrew":5372,"ĠLength":5373,"Ġ205":5374,"ĠDo":5375,"ĠDis":5376,"ĠDestination":5377,"ĠBl":5378,"Ġbeyond":5379,"ĠFamily":5380,"idated":5381,"idden":5382,"ecting":5383,"Ġlicense":5384,"Ġhold":5385,"Ġtransparent":5386,"Ġvolum":5387,"Ġenough":5388,"istory":5389,"ĠOIF":5390,"Ġloops":5391,"253":5392,"come":5393,"Ġguide":5394,"ĠIntroduction":5395,"opul":5396,"iring":5397,"Ġcompl":5398,"speed":5399,"Ġaccounting":5400,"1111":5401,"Ġunless":5402,"anges":5403,"Ġlegs":5404,"Ġleave":5405,"Ġswitching":5406,"though":5407,"Ġremain":5408,"ĠStandard":5409,"ĠSpace":5410,"ĠSpanning":5411,"ĠSpanned":5412,"Ġ89":5413,"ĠRewrite":5414,"Ġpermitted":5415,"ĠExplicit":5416,"ensh":5417,"Ġ74":5418,"Ġresource":5419,"ĠAlias":5420,"cedure":5421,"ĠDesignated":5422,"Ġnumbering":5423,"ĠAnalytics":5424,"Ġ151":5425,"Ġsimply":5426,"Ġ137":5427,"Ġgateways":5428,"fwd":5429,"params":5430,"2001":5431,"Ġutilizes":5432,"ĠModels":5433,"nameif":5434,"Ġruns":5435,"Ġ0001":5436,"Ġtrunkswitchport":5437,"Ġdesired":5438,"ĠInterconnect":5439,"ĠDetection":5440,"Ġmoved":5441,"epending":5442,"ĠSee":5443,"Ġrelationship":5444,"Ġadministrative":5445,"Ġdepends":5446,"Ġaggregate":5447,"ĠIGMPv":5448,"Ġ2023":5449,"Ġenterprise":5450,"Ġplacement":5451,"Ġmarked":5452,"Ġpods":5453,"SSH":5454,"Ġenhance":5455,"Ġtravers":5456,"Ġhappen":5457,"Ġsuccessfully":5458,"ENT":5459,"ĠExplorer":5460,"Ġelimin":5461,"Ġorganizations":5462,"ĠRedundancy":5463,"ĠFlexible":5464,"Ġapplicable":5465,"44":5466,">-<":5467,"Availability":5468,"Att":5469,"High":5470,"Hardware":5471,"Hermes":5472,"IGP":5473,"Ident":5474,"Key":5475,"KDD":5476,"Maximum":5477,"Of":5478,"Packet":5479,"SNMP":5480,"Syslog":5481,"Split":5482,"TRAP":5483,"YS":5484,"cle":5485,"ft":5486,"hidden":5487,"lication":5488,"mat":5489,"more":5490,"rint":5491,"south":5492,"tifac":5493,"uep":5494,"vis":5495,"west":5496,"where":5497,"Ġ,":5498,"ĠÂł":5499,"Ġaud":5500,"atibility":5501,"Ġsyslog":5502,"Ġcard":5503,"Ġpus":5504,"Ġbund":5505,"Ġbusiness":5506,"Ġdensity":5507,"usion":5508,"Ġmsd":5509,"ĠSER":5510,"ĠSDI":5511,"ĠTech":5512,"ĠApp":5513,"Ġeast":5514,"ĠPAN":5515,"ĠPBR":5516,"urable":5517,"Ġ225":5518,"Ġ245":5519,"ĠDirect":5520,"ĠBL":5521,"amless":5522,"ĠEX":5523,"ĠETRAP":5524,"otes":5525,"ateg":5526,"ĠRR":5527,"Ġlicensing":5528,"93108":5529,"Ġhour":5530,"aph":5531,"apers":5532,"Ġexplicit":5533,"istered":5534,"ĠOCP":5535,"andidate":5536,"compl":5537,"Ġmultip":5538,"ignature":5539,"------":5540,"umn":5541,"Ġ67":5542,"Ġseamless":5543,"123":5544,"ĠHand":5545,"ĠHermes":5546,"ĠHMM":5547,"ĠHorizon":5548,"Ġaccompl":5549,"yper":5550,"Ġrequiring":5551,"Ġoverhead":5552,"Ġleaving":5553,"157":5554,"1599":5555,"Ġimmediate":5556,"1401":5557,"ĠWAR":5558,"Ġ65000":5559,"Ġ65142":5560,"Ġremark":5561,"Ġremains":5562,"nooping":5563,"mtx":5564,"Ġchapter":5565,"âĢĿ,":5566,"redst":5567,"ĠQue":5568,"Ġsenders":5569,"Ġincluded":5570,"Ġdisabled":5571,"ync":5572,"vlans":5573,"Ġxml":5574,"ĠClusters":5575,"Ġregistered":5576,"Ġheaders":5577,"Ġlevels":5578,"Appendix":5579,"Ġrestric":5580,"Ġsubset":5581,"subnets":5582,"Ġtaken":5583,"Ġlatest":5584,"ĠOSPFv":5585,"ASIC":5586,"Ġgeneral":5587,"Ġconsider":5588,"Ġpresents":5589,"Ġrefers":5590,"Ġillustrative":5591,"3755":5592,"USTER":5593,"ĠArtifac":5594,"Ġoffset":5595,"ĠTranslation":5596,"ethertype":5597,"Ġsimplify":5598,"Ġ65003":5599,"Ġsignaling":5600,"Blocking":5601,"Ġeasier":5602,"ĠPerformance":5603,"indows":5604,"ĠManual":5605,"ĠManager":5606,"snip":5607,"Ġproperty":5608,"Ġupdated":5609,"Ġtranslated":5610,"Ġfocused":5611,"ĠCapacity":5612,"Redirect":5613,"Ġhighlights":5614,"Links":5615,"ĠOrchestr":5616,"Ġbelonging":5617,"Ġexperien":5618,"Local":5619,"Class":5620,"frontend":5621,"ĠLossless":5622,"digest":5623,"Ġduplication":5624,"Ġlayers":5625,"ĠGbE":5626,"ĠQinQ":5627,"ĠSynchronization":5628,"ueprint":5629,"Ġmsdp":5630,"Ġxmlns":5631,"3000":5632,"BE":5633,"East":5634,"IB":5635,"NG":5636,"Non":5637,"Pub":5638,"RT":5639,"Scal":5640,"Time":5641,"User":5642,"]:":5643,"aw":5644,"aust":5645,"db":5646,"evel":5647,"layer":5648,"lash":5649,"lived":5650,"mask":5651,"pass":5652,"papers":5653,"sens":5654,"ued":5655,"Ġig":5656,"Ġtiles":5657,"Ġair":5658,"repbr":5659,"ited":5660,"itable":5661,"Ġfam":5662,"Ġfiber":5663,"Ġcards":5664,"Ġcertificates":5665,"Ġ1100":5666,"Ġ127":5667,"Ġdia":5668,"Ġincor":5669,"alk":5670,"alse":5671,"Ġnote":5672,"ĠVTY":5673,"ĠTAC":5674,"Ġrear":5675,"Ġreport":5676,"Ġrecord":5677,"Ġconf":5678,"Ġconsequ":5679,"Ġem":5680,"ĠLOU":5681,"ĠLear":5682,"ĠLinux":5683,"ĠDN":5684,"ĠDate":5685,"ĠDomain":5686,"ĠDST":5687,"ĠDelay":5688,"ĠManage":5689,"ĠFront":5690,"ĠFeedback":5691,"unit":5692,"Ġtraining":5693,"fact":5694,"Ġengine":5695,"Ġlost":5696,"Ġloop":5697,"ecial":5698,"qual":5699,"irm":5700,"see":5701,"Ġserial":5702,"ailed":5703,"Ġ44":5704,"-----":5705,"ĠCons":5706,"129":5707,"posite":5708,"ĠHe":5709,"118":5710,"Ġrp":5711,"Ġ97":5712,"Ġnever":5713,"Ġdepth":5714,"Ġpred":5715,"Ġopposite":5716,"Ġwhite":5717,"321":5718,"Ġimages":5719,"threshold":5720,"fered":5721,"ĠASA":5722,"Ġupgrades":5723,"clip":5724,"Ġdesigns":5725,"Ġcharacter":5726,"Ġ77":5727,"Ġ162":5728,"CLI":5729,"ĠYang":5730,"Ġ138":5731,"Ġclassify":5732,"permit":5733,"prefix":5734,"Ġregular":5735,"Ġcoexist":5736,"ĠDeploying":5737,"Specific":5738,"Ġacting":5739,"Ġlookups":5740,"Ġdenied":5741,"valid":5742,"Ġapplying":5743,"ING":5744,"Ġquick":5745,"Ġdescribes":5746,"Ġreplicated":5747,"Ġthresholds":5748,"secure":5749,"Ġmembers":5750,"Ġcolumn":5751,"Ġdecapsulation":5752,"Ġleverage":5753,"Ġinterconnected":5754,"Ġprogrammability":5755,"Anycast":5756,"ĠIntelligent":5757,"Ġgreater":5758,"ĠInstead":5759,"Dev":5760,"reflector":5761,"Ġsummarized":5762,"subscription":5763,"whitepapers":5764,"Ġdeliver":5765,"Role":5766,"Ġtraverse":5767,"Ġhashing":5768,"authorized":5769,"orldwide":5770,"ĠMembership":5771,"Ġequipped":5772,"Ġbank":5773,"Ġmultitenant":5774,"ĠHeader":5775,"Assuming":5776,"Ġtasks":5777,"Ġexhaust":5778,"allowas":5779,"Ġresiliency":5780,"pbrepbr":5781,"ĠTechno":5782,"Ġigmp":5783,"Ġdialog":5784,"ĠLearning":5785,"\",":5786,")(":5787,")*":5788,"094":5789,"497":5790,"842":5791,"908":5792,"Ac":5793,"Arm":5794,"DE":5795,"Differentiated":5796,"File":5797,"FTP":5798,"Kindle":5799,"LR":5800,"MDT":5801,"PT":5802,"SA":5803,"Telemetry":5804,"UDI":5805,"cn":5806,"candidate":5807,"eh":5808,"eac":5809,"fm":5810,"iers":5811,"ium":5812,"lers":5813,"management":5814,"pki":5815,"rp":5816,"rate":5817,"sw":5818,"ties":5819,"tier":5820,"vision":5821,"wan":5822,"wner":5823,"xls":5824,"ycle":5825,"ĉĉ":5826,"Ġndfc":5827,"Ġter":5828,"inally":5829,"hef":5830,"herent":5831,"related":5832,"ony":5833,"ernel":5834,"Ġsymmetry":5835,"Ġfree":5836,"Ġcru":5837,"Ġ124":5838,"Ġ118":5839,"Ġ119":5840,"Ġdon":5841,"acing":5842,"acacs":5843,"arant":5844,"ĠVACL":5845,"ĠVendor":5846,"ĠSDC":5847,"ĠSchedule":5848,"ĠSandwich":5849,"ĠSony":5850,"Ġ104":5851,"ĠCOM":5852,"ĠCards":5853,"ilient":5854,"Ġise":5855,"ĠePub":5856,"ĠPalo":5857,"ĠPurging":5858,"Ġ221":5859,"ĠDie":5860,"ĠDSCP":5861,"ĠDuplicate":5862,"ĠMa":5863,"ĠMore":5864,"ĠMRIB":5865,"ĠFree":5866,"ĠField":5867,"ĠFlags":5868,"ĠFQDN":5869,"changed":5870,"Ġadvantages":5871,"standby":5872,"ided":5873,"atell":5874,"ĠRec":5875,"934":5876,"Ġhsm":5877,"1600":5878,"Ġtrust":5879,"Ġalign":5880,"Ġprom":5881,"Ġprogram":5882,"Ġ397":5883,"ĠOF":5884,"ĠOS":5885,"check":5886,"Ġstrict":5887,"Ġconfigurable":5888,"elated":5889,"antom":5890,"ĠContract":5891,"pos":5892,"ĠHash":5893,"ĠHBM":5894,"Ġacl":5895,"245":5896,"ĠGener":5897,"Ġrisk":5898,"Ġapps":5899,"Ġ91":5900,"Ġuniform":5901,"ĠSerial":5902,"ĠAdvanced":5903,"ĠAdvantage":5904,"ÂłÂłÂłÂłÂłÂłÂłÂłÂłÂłÂłÂłÂł":5905,"through":5906,"ĠWindows":5907,"Ġ6530":5908,"Ġ65201":5909,"Ġ65301":5910,"Ġoutgoing":5911,"ĠStack":5912,"ĠStructure":5913,"304":5914,"servation":5915,"Ġdestinations":5916,"Ġextcon":5917,"Ġextensions":5918,"Start":5919,"Ġconsol":5920,"Ġdetect":5921,"ĠAllocation":5922,"Ġ160":5923,"Ġ168":5924,"ĠNXOS":5925,"Ġobt":5926,"Ġ155":5927,"Ġ159":5928,"Ġ133":5929,"Ġ13000":5930,"TCP":5931,"Ġimported":5932,"Ġdistributing":5933,"Ġvirtualization":5934,"ĠConnected":5935,"Ġcomponent":5936,"Ġ140":5937,"Ġ141":5938,"Ġ149":5939,"Ġseparation":5940,"Ġ246":5941,"Ġsubscrib":5942,"Servers":5943,"arameter":5944,"Ġincrement":5945,"ĠDeployed":5946,"Ġcarries":5947,"ĠiDRAC":5948,"Ġresponse":5949,"Ġconsideration":5950,"ĠFailures":5951,"Ġ2002":5952,"Ġmaintenance":5953,"Explicit":5954,"ĠBuilding":5955,"ĠCommands":5956,"ĠVPNs":5957,"ĠPriority":5958,"ĠOutside":5959,"Ġillustrated":5960,"Enabling":5961,"eginning":5962,"Ġevents":5963,"gregation":5964,"ĠNov":5965,"ĠSystems":5966,"Ġsimplifies":5967,"8443":5968,"Ġeasily":5969,"Ġprevents":5970,"Ġjoins":5971,"Administration":5972,"Ġexists":5973,"Ġeffect":5974,"XXXXXXXX":5975,"Approximate":5976,"OMER":5977,"ĠApplied":5978,"Ġdays":5979,"Ġearly":5980,"Ġsimultaneously":5981,"Ġexpansions":5982,"Ġbalancing":5983,"Ġreason":5984,"Ġfacilitate":5985,"Ġhappens":5986,"Ġlegacy":5987,"vmotion":5988,"Ġsignificantly":5989,"ĠiPad":5990,"ĠiPhone":5991,"Ġcorrectly":5992,"Ġsituations":5993,"ĠActions":5994,"ĠLimits":5995,"Ġmonitor":5996,"Ġwriting":5997,"ĠNavigation":5998,"ĠBootstrap":5999,"ĠMobi":6000,"USTOMER":6001,"Ġvolume":6002,"enshift":6003,"Attribute":6004,"ĠSERVER":6005,"ĠArtifacts":6006,"Ġairflow":6007,"eacc":6008,"Ġcrucial":6009,"atellite":6010,"Ġ3974":6011,"ĠHashing":6012,"1000":6013,"46":6014,"Border":6015,"Because":6016,"Beginning":6017,"Can":6018,"Custom":6019,"Fast":6020,"Gb":6021,"IOS":6022,"NV":6023,"No":6024,"Or":6025,"PTP":6026,"QoS":6027,"Remote":6028,"TRM":6029,"UL":6030,"UP":6031,"ci":6032,"cision":6033,"cise":6034,"ffix":6035,"gin":6036,"lat":6037,"oT":6038,"running":6039,"sence":6040,"tuple":6041,"virtual":6042,"worth":6043,"Ġ'":6044,"ĠÂłÂłÂł":6045,"including":6046,"rest":6047,"Ġscre":6048,"esp":6049,"itle":6050,"Ġcalico":6051,"Ġcables":6052,"rotocol":6053,"Ġplay":6054,"Ġprivate":6055,"Ġ113":6056,"Ġdscp":6057,"Ġdci":6058,"Ġinser":6059,"acef":6060,"Ġmis":6061,"Ġmcast":6062,"ĠSamples":6063,"ĠScope":6064,"ĠTAm":6065,"ada":6066,"ademarks":6067,"ĠII":6068,"ĠInd":6069,"ĠIETF":6070,"Ġisis":6071,"Ġconvert":6072,"Ġconcur":6073,"Ġ226":6074,"ĠDifferent":6075,"ĠDraft":6076,"ĠBas":6077,"ĠBIOS":6078,"ĠMess":6079,"ĠEss":6080,"ĠESG":6081,"cho":6082,"omic":6083,"ĠRBAC":6084,"2025":6085,"Ġlibr":6086,"Ġalternative":6087,"Ġencod":6088,"Ġprofiles":6089,"Ġ301":6090,"Ġlook":6091,"Ġstit":6092,"Ġstability":6093,"eline":6094,"0100":6095,"ĠUTC":6096,"tools":6097,"Ġcome":6098,"ored":6099,"Ġ63":6100,"Ġ69":6101,"2447":6102,"ĠGr":6103,"Ġ99":6104,"boot":6105,"Ġportf":6106,"Ġportal":6107,"Ġwho":6108,"ĠWorldwide":6109,"Ġupon":6110,"client":6111,"ĠVNID":6112,"efore":6113,"ĠStandby":6114,"Ġ179":6115,"048":6116,"ĠReferences":6117,"grp":6118,"ocuments":6119,"ensible":6120,"ĠBlocks":6121,"####":6122,"Ġ76":6123,"Ġcontent":6124,"Ġresolve":6125,"Ġinteroper":6126,"Ġ156":6127,"ĠYour":6128,"avy":6129,"ĠIDs":6130,"Ġworking":6131,"ĠProtocols":6132,"Ġpointing":6133,"ĠXML":6134,"plementation":6135,"Ġarchitectures":6136,"Ġcovers":6137,"ĠTools":6138,"Ġ146":6139,"Ġimplementing":6140,"ĠOnline":6141,"Ġunderlying":6142,"Ġcarving":6143,"Ġseparately":6144,"ĠSVIs":6145,"ĠSSM":6146,"Ġgoes":6147,"Ġgover":6148,"Ġloaded":6149,"553":6150,"Ġmoving":6151,"ĠSegmentation":6152,"Ġoperates":6153,"Ġmanager":6154,"Ġstreaming":6155,"Ġintroduction":6156,"tenancy":6157,"Ġstores":6158,"Ġsimplifying":6159,"Ġbridge":6160,"Ġbridged":6161,"Ġchecks":6162,"Ġsignals":6163,"Any":6164,"Ġordinal":6165,"Ġrespectively":6166,"Ġcentralized":6167,"Ġwants":6168,"ĠDropCloudScale":6169,"Ġ3600":6170,"Ġ350":6171,"Ġactions":6172,"encapsulates":6173,"Ġbenefit":6174,"Ġcopy":6175,"Ġcopies":6176,"Ġreleases":6177,"Ġreplacement":6178,"Ġstrong":6179,"Ġfactor":6180,"Ġterminal":6181,"statistics":6182,"Operation":6183,"ipulation":6184,"Ġhighlighted":6185,"Integr":6186,"ĠACI":6187,"Individual":6188,"disable":6189,"Ġmigration":6190,"cheduling":6191,"Ġtroubleshooting":6192,"Ġoccupy":6193,"Ġsilent":6194,"ĠContents":6195,"opulated":6196,"Ġincorpor":6197,"Ġterms":6198,"Canada":6199,"NVMe":6200,"worthy":6201,"aceful":6202,"Ġconcurrent":6203,"ĠMessage":6204,"711":6205,"909":6206,"BL":6207,"CD":6208,"Cent":6209,"Cap":6210,"COM":6211,"Det":6212,"Further":6213,"HOSP":6214,"MD":6215,"Mode":6216,"NA":6217,"NOD":6218,"QL":6219,"RDMA":6220,"RBAC":6221,"SX":6222,"TAG":6223,"bb":6224,"bone":6225,"design":6226,"delay":6227,"hp":6228,"iod":6229,"iour":6230,"iency":6231,"ker":6232,"like":6233,"password":6234,"ptp":6235,"ra":6236,"ring":6237,"ray":6238,"range":6239,"rpc":6240,"sure":6241,"support":6242,"satellite":6243,"uous":6244,"web":6245,"Ġtun":6246,"Ġtenancy":6247,"inherit":6248,"hell":6249,"rece":6250,"ones":6251,"Ġsup":6252,"Ġsnooping":6253,"ict":6254,"isions":6255,"Ġclo":6256,"Ġcable":6257,"Ġclear":6258,"Ġcategor":6259,"roker":6260,"Ġpip":6261,"lection":6262,"Ġ164":6263,"Ġ142":6264,"Ġ145":6265,"Ġbreak":6266,"Ġdivid":6267,"Ġinject":6268,"Ġinfo":6269,"Ġinherent":6270,"Ġowner":6271,"Ġnames":6272,"Ġnaming":6273,"Ġwa":6274,"ĠVTP":6275,"ĠSeed":6276,"ĠTH":6277,"ĠNokia":6278,"afe":6279,"Ġoffered":6280,"Ġconcepts":6281,"ĠLicense":6282,"ĠPod":6283,"ĠPlease":6284,"ĠPVLAN":6285,"ĠPower":6286,"ural":6287,"âĢľ":6288,"ĠBroker":6289,"ĠMgmt":6290,"ĠMatrix":6291,"ĠEnt":6292,"ĠEqual":6293,"ĠFurther":6294,"routed":6295,"ipp":6296,"ĠRO":6297,"ĠRadius":6298,"Ġlack":6299,"9348":6300,"Ġhtt":6301,"Ġprocedure":6302,"place":6303,"Ġlock":6304,"Ġstage":6305,"ircul":6306,"9400":6307,"Ġserves":6308,"Ġspread":6309,"Ġperiod":6310,"umer":6311,"Ġ66":6312,"Ġ68":6313,"243":6314,"246":6315,"117":6316,"1110":6317,"NICs":6318,"Ġrates":6319,"Ġ57":6320,"Ġ501":6321,"Ġunit":6322,"Ġunchanged":6323,"Ġneighb":6324,"Ġoverl":6325,"Ġlet":6326,"150":6327,"1500":6328,"Ġuseful":6329,"140":6330,"Ġ65200":6331,"Ġ65105":6332,"Ġ65203":6333,"Ġupload":6334,"vrfmember":6335,"vrfservice":6336,"Ġ250":6337,"264":6338,"Ġchain":6339,"Ġ170":6340,"Ġ175":6341,"ĠReview":6342,"Ġsufficient":6343,"Ġsuitable":6344,"Ġpartn":6345,"ĠLocations":6346,"ĠEncapsul":6347,"ĠEnabled":6348,"gested":6349,"Ġmax":6350,"Ġ70":6351,"299":6352,"FXP":6353,"Ġthroughout":6354,"cont":6355,"Ġ167":6356,"CLUSTER":6357,"Ġ1501":6358,"aves":6359,"Ġidentifier":6360,"Ġ131":6361,"Ġ182":6362,"Ġ183":6363,"Ġ185":6364,"Ġusername":6365,"Ġcompatibility":6366,"ERS":6367,"msg":6368,"Ġ144":6369,"9700":6370,"ĠHosts":6371,"hority":6372,"Ġ240":6373,"Ġ241":6374,"Ġintake":6375,"Ġjob":6376,"Ġgenerates":6377,"Ġcorner":6378,"Ġlimitation":6379,"ĠNotice":6380,"Ġoptimize":6381,"Ext":6382,"Alto":6383,"ĠProvides":6384,"Ġadjust":6385,"ĠForwarder":6386,"ĠWhat":6387,"Ġhandoff":6388,"ebgp":6389,"Ġreliable":6390,"ĠResp":6391,"ledge":6392,"Hostname":6393,"Ġleveraged":6394,"ĠSupported":6395,"LOG":6396,"PSN":6397,"Ġminimize":6398,"Ġbehaviour":6399,"Ġspeeds":6400,"ĠreadFIO":6401,"Ġsynchronized":6402,"Administr":6403,"istinguisher":6404,"ĠNetFlow":6405,"Ġcopper":6406,"Unaware":6407,"Ġassumption":6408,"iliates":6409,"ĠJoin":6410,"Ġtesting":6411,"Common":6412,"Commands":6413,"device":6414,"Ġtraps":6415,"systems":6416,"Ġactivat":6417,"Ġactivated":6418,"ĠUsage":6419,"Ġaffiliates":6420,"Ġunnecessary":6421,"addr":6422,"Ġcomputing":6423,"Independent":6424,"ĠwriteFIO":6425,"Ġcombined":6426,"Ġpackages":6427,"Ġdistin":6428,"Ġawareness":6429,"optimal":6430,"Ġparallel":6431,"Ġgranted":6432,"ĠDEI":6433,"ĠSpecifications":6434,"Ġprivileges":6435,"Ġrewrit":6436,"ĠWARN":6437,"ĠOrchestrator":6438,"Classification":6439,"posit":6440,"statisticsmatch":6441,"NODE":6442,"irculation":6443,"Ġneighbour":6444,"98":6445,"AV":6446,"Access":6447,"Click":6448,"DU":6449,"Eth":6450,"Front":6451,"GB":6452,"Guide":6453,"NE":6454,"North":6455,"OT":6456,"Plane":6457,"Physical":6458,"PDU":6459,"Rs":6460,"Tag":6461,"VAN":6462,"VIP":6463,"WRED":6464,"XE":6465,"dd":6466,"dat":6467,"fe":6468,"fers":6469,"fail":6470,"hanced":6471,"ma":6472,"mem":6473,"rive":6474,"via":6475,"xml":6476,"Ġide":6477,"Ġtier":6478,"ining":6479,"Ġsamples":6480,"Ġsrc":6481,"ish":6482,"ister":6483,"Ġfe":6484,"Ġfaster":6485,"Ġfinal":6486,"lemetry":6487,"Ġ125":6488,"Ġ126":6489,"Ġbot":6490,"Ġbrough":6491,"Ġbidir":6492,"Ġinsp":6493,"anc":6494,"Ġtoday":6495,"Ġmenu":6496,"abor":6497,"ĠSmart":6498,"ĠTEP":6499,"ĠNON":6500,"ĠNFS":6501,"ĠIIF":6502,"ĠIoT":6503,"ĠAF":6504,"Ġconcept":6505,"ĠLine":6506,"ĠLevel":6507,"ĠPair":6508,"ĠPolicing":6509,"Ġ232":6510,"Ġ2000":6511,"Ġonto":6512,"ĠBelow":6513,"ĠMicro":6514,"ĠEven":6515,"ĠFalse":6516,"uples":6517,"ival":6518,"olved":6519,"ĠRTP":6520,"Ġlife":6521,"166":6522,"apsh":6523,"Ġexcess":6524,"Ġprotection":6525,"GPO":6526,"Ġ337":6527,"emp":6528,"These":6529,"intenance":6530,"Ġpermissions":6531,"Ġaccount":6532,"132":6533,"Ġauthorized":6534,"ĠGB":6535,"Ġpreserved":6536,"Ġpresence":6537,"Ġleafs":6538,"ĠMultiple":6539,"Ġleaves":6540,"ĠTracking":6541,"Ġexternally":6542,"1002":6543,"ĠFormat":6544,"Ġ83":6545,"Ġ84":6546,"Ġ87":6547,"ĠReplication":6548,"ĠReference":6549,"redirect":6550,"Ġ72":6551,"Ġ73":6552,"Ġ78":6553,"Ġ3004":6554,"Ġ163":6555,"Ġarriv":6556,"Ġargu":6557,"telemetry":6558,"Ġlogically":6559,"Ġ136":6560,"Ġ184":6561,"TCAM":6562,"index":6563,"pbrstatisticsmatch":6564,"Ġapproaches":6565,"phan":6566,"Ġcompare":6567,"Ġcompany":6568,"Ġenablemtu":6569,"Ġ147":6570,"timized":6571,"Series":6572,"fficiency":6573,"Ġacts":6574,"Ġtrunkspanning":6575,"Ġminut":6576,"value":6577,"Ġuniquely":6578,"cursive":6579,"INT":6580,"Ġquite":6581,"Ġmaintained":6582,"Ġdiscuss":6583,"Hosts":6584,"Ġframework":6585,"Ġcoll":6586,"Ġmaps":6587,"Ġminimal":6588,"buffer":6589,"ĠValidated":6590,"Ġ33000":6591,"ĠPlace":6592,"Ġremoving":6593,"Within":6594,"ĠManipulation":6595,"Ġcounters":6596,"ĠNumbering":6597,"ĠGuard":6598,"ATA":6599,"Ġexplains":6600,"ĠClassification":6601,"Ġtermination":6602,"period":6603,"Ġunderstanding":6604,"Designing":6605,"deny":6606,"Ġinvolves":6607,"Ġinvolving":6608,"ĠAttach":6609,"Ġpotentially":6610,"ĠModular":6611,"homing":6612,"Ġfacilitates":6613,"ĠRTT":6614,"ĠMemory":6615,"eneighbor":6616,"Ġmultitenancy":6617,"Ġauthenticate":6618,"Ġsnipp":6619,"Ġdiscover":6620,"Ġdiscovered":6621,"Ġphase":6622,"ĠApplications":6623,"Ġconstructs":6624,"Ġdevelop":6625,"Connectivity":6626,"Ġmillion":6627,"Ġhierarchical":6628,"Ġmonths":6629,"Ġeliminates":6630,"Identity":6631,"ĠMaintenance":6632,"Capable":6633,"ĠROCE":6634,"Ġactivateneighbor":6635,"Ġdistinct":6636,"Ġbrought":6637,"apshot":6638,"Ġsnippet":6639,"/>":6640,"116":6641,"218":6642,"54272":6643,"712":6644,"713":6645,"715":6646,"714":6647,"8000":6648,"AI":6649,"Before":6650,"CU":6651,"CIMC":6652,"Do":6653,"Dom":6654,"Deny":6655,"Every":6656,"EST":6657,"Feature":6658,"Grid":6659,"Iris":6660,"LCs":6661,"Monitoring":6662,"MnT":6663,"Now":6664,"PAN":6665,"Pair":6666,"Posture":6667,"RJ":6668,"RHOSO":6669,"Sub":6670,"Since":6671,"Src":6672,"Up":6673,"Vendor":6674,"Version":6675,"Zone":6676,"_<":6677,"bed":6678,"cE":6679,"cnt":6680,"density":6681,"dscp":6682,"hing":6683,"hantom":6684,"jor":6685,"mm":6686,"py":6687,"racl":6688,"xGrid":6689,"ïĤ":6690,"Ġnd":6691,"reat":6692,"reco":6693,"onclusion":6694,"Ġthems":6695,"Ġsheet":6696,"isites":6697,"Ġfill":6698,"Ġfrozen":6699,"Ġpb":6700,"Ġpolic":6701,"Ġ132":6702,"Ġ148":6703,"Ġdif":6704,"Ġinband":6705,"lob":6706,"Ġmy":6707,"Ġmachine":6708,"arters":6709,"ĠSignature":6710,"Ġ109":6711,"ĠTen":6712,"ĠTest":6713,"ĠNG":6714,"ĠNGM":6715,"ĠNMS":6716,"Ġrec":6717,"Ġreside":6718,"Ġreached":6719,"Ġreservation":6720,"ĠCA":6721,"ildc":6722,"Ġcongested":6723,"ĠLB":6724,"ĠPhantom":6725,"Ġ222":6726,"ĠDAC":6727,"ĠDepending":6728,"ĠBeh":6729,"ĠBPDU":6730,"ĠMet":6731,"ĠMain":6732,"ĠMapping":6733,"agment":6734,"agram":6735,"ivation":6736,"Ġadap":6737,"Ġadop":6738,"start":6739,"ident":6740,"unicast":6741,"ĠRep":6742,"ĠRelay":6743,"ĠREST":6744,"Ġlab":6745,"aps":6746,"apid":6747,"Ġextra":6748,"ista":6749,"istic":6750,"Ġproceed":6751,"Ġ302":6752,"Ġ305":6753,"ĠOwn":6754,"owards":6755,"quarters":6756,"Ġstated":6757,"25600":6758,"ĠgRPC":6759,"elves":6760,"antage":6761,"spines":6762,"Ġ61":6763,"pose":6764,"Ġbypass":6765,"Ġaccur":6766,"134":6767,"138":6768,"248":6769,"119":6770,"ĠGene":6771,"Ġ0101":6772,"Ġ55":6773,"Ġ502":6774,"Ġ54272":6775,"Ġ909":6776,"Ġunint":6777,"anging":6778,"PConclusion":6779,"ĠNetworkL":6780,"Ġimplies":6781,"Initiator":6782,"146":6783,"148":6784,"Ġ65202":6785,"ributes":6786,"Ġhostname":6787,"ĠStart":6788,"ĠStorm":6789,"ĠProgramm":6790,"261":6791,"263":6792,"OBVAN":6793,"Ġ171":6794,"Ġ176":6795,"logging":6796,"Ġ85":6797,"Ġ86":6798,"graph":6799,"actices":6800,"ĠLoop":6801,"Stat":6802,"Stretch":6803,"Ġtags":6804,"ĠPortFast":6805,"1800":6806,"1880":6807,"Ġbackbone":6808,"dcdb":6809,"Ġdoing":6810,"bytes":6811,"ĠAlternative":6812,"ĠAllocated":6813,"nique":6814,"Ġ166":6815,"Ġprinciples":6816,"27136":6817,"Ġarp":6818,"Ġobserve":6819,"nwsleaf":6820,"avior":6821,"Ġmanual":6822,"Ġmanages":6823,"Ġ139":6824,"Ġ1812":6825,"ĠKe":6826,"ĠAuthority":6827,"ĠXXXXXXXXX":6828,"ĠĠĠĠĠĠĠĠĠĠ":6829,"ĠĠĠĠĠĠĠĠĠĠĠĠĠ":6830,"Cont":6831,"Ġnewly":6832,"Ġregard":6833,"Ġprocesses":6834,"Ġcovered":6835,"Ġcomprom":6836,"9732":6837,"3600":6838,"Ġresulting":6839,"3584":6840,"Ġintent":6841,"Ġ0050":6842,"Ġestablishes":6843,"ĠUnits":6844,"Programmability":6845,"Ġgenerally":6846,"Ġconsidering":6847,"Ġlimits":6848,"Ġlimiting":6849,"Ġdenotes":6850,"8905":6851,"Allocation":6852,"ĠProvide":6853,"ĠPrioritization":6854,"ĠPractices":6855,"Ġ27136":6856,"Ġmodular":6857,"ISIS":6858,"Ġequival":6859,"aclload":6860,"Ġoperator":6861,"Ġquest":6862,"Ġadjacent":6863,"requisites":6864,"Ġdiscusses":6865,"Ġvari":6866,"Ġcollected":6867,"ĠBufferCloudScale":6868,"Ġinterconnecting":6869,"ĠSimple":6870,"Ġautomatic":6871,"Ġ950":6872,"References":6873,"onsor":6874,"----------------------------------------------------------------":6875,"Ġstretching":6876,"Ġ360":6877,"Ġ3584":6878,"Ġcountr":6879,"Apollo":6880,"Automation":6881,"Point":6882,"Ġmarking":6883,"ĠWorkflow":6884,"Ġstrateg":6885,"Ġguarant":6886,"SSX":6887,"Unicast":6888,"ĠAssum":6889,"ĠCapable":6890,"Ġdistinguish":6891,"ĠAttribute":6892,"Ġstudio":6893,"ĠReflector":6894,"veloper":6895,"Ġsla":6896,"ĠSyncE":6897,"Ġequipment":6898,"Ġtreated":6899,"Ġbanner":6900,"ĠACK":6901,"Ġexperience":6902,"ĠHeadquarters":6903,"ĠCoPP":6904,"Ġtriggers":6905,"ĠSubject":6906,"ĠAudit":6907,"natgw":6908,"Ġwords":6909,"Ġquery":6910,"Ġpackage":6911,"Ġgranularity":6912,"Ġparticipate":6913,"Ġparticipating":6914,"ĠDatagram":6915,"ĠMultipath":6916,"ĠSMTP":6917,"Ġratio":6918,"RoCEv":6919,"Ġcompliance":6920,"Ġhours":6921,"Ġaccomplished":6922,"]:[":6923,"Ġquickly":6924,"ĠPaloAlto":6925,"Ġscreen":6926,"Integration":6927,"ĠEncapsulation":6928,"ĠResponse":6929,"Ġrewritten":6930,"cntacl":6931,"ïĤ§":6932,"recovery":6933,"Ġthemselves":6934,"ĠNGMVPN":6935,"ildcard":6936,"ĠBehavior":6937,"ĠGeneve":6938,"dcdbac":6939,"Ġequivalent":6940,"4608":6941,"768":6942,"BFD":6943,"Cases":6944,"DACL":6945,"Fr":6946,"Gig":6947,"Gateway":6948,"IGMP":6949,"Kubernetes":6950,"Live":6951,"LOU":6952,"Like":6953,"Not":6954,"Number":6955,"Object":6956,"Pl":6957,"TL":6958,"VL":6959,"Work":6960,"YANG":6961,"available":6962,"best":6963,"bursts":6964,"center":6965,"cases":6966,"df":6967,"draft":6968,"eo":6969,"got":6970,"kub":6971,"mac":6972,"physical":6973,"ptions":6974,"scal":6975,"svi":6976,"this":6977,"ufact":6978,"uffix":6979,"wp":6980,"Ġ--":6981,"Ġ..":6982,"Ġaver":6983,"inject":6984,"release":6985,"origin":6986,"atile":6987,"Ġsys":6988,"Ġscrip":6989,"Ġshell":6990,"itenancy":6991,"Ġfall":6992,"Ġcisco":6993,"Ġpow":6994,"Ġplus":6995,"Ġparent":6996,"Ġparameter":6997,"let":6998,"lean":6999,"Ġ121":7000,"Ġ196":7001,"Ġbase":7002,"Ġdrives":7003,"Ġdraft":7004,"Ġintr":7005,"also":7006,"alys":7007,"acenter":7008,"Ġnx":7009,"Ġnature":7010,"Ġms":7011,"Ġworld":7012,"ational":7013,"ĠSuffix":7014,"ĠNull":7015,"adata":7016,"ĠIT":7017,"ĠACE":7018,"ĠArea":7019,"Ġrecursive":7020,"Ġefficiency":7021,"ĠLive":7022,"ĠLarge":7023,"ĠPavilion":7024,"âĢ¦":7025,"Ġonline":7026,"Ġonboarding":7027,"ĠDifferentiated":7028,"ĠBut":7029,"ĠMaximum":7030,"ĠMachine":7031,"ĠFundamental":7032,"upled":7033,"chor":7034,"step":7035,"ipt":7036,"iding":7037,"celer":7038,"ĠRD":7039,"ĠRACLs":7040,"Ġhair":7041,"Ġhops":7042,"Ġexact":7043,"plied":7044,"Ġstuck":7045,"Ġorchestr":7046,"Ġgeneration":7047,"Ġgeo":7048,"portant":7049,"udio":7050,"Ġ4608":7051,"Ġ600":7052,"uble":7053,"ctions":7054,"Ġ999":7055,"Ġunauthorized":7056,"rfeature":7057,"Ġoverview":7058,"maps":7059,"Ġreceipt":7060,"Ġ254":7061,"trademarks":7062,"ĠNDFCNDFC":7063,"Ġ93180":7064,"Ġyear":7065,"Ġ177":7066,"capable":7067,"2300":7068,"Ġothers":7069,"Ġ82":7070,"Ġparts":7071,"Ġpartner":7072,"Ġ79":7073,"Ġintersite":7074,"Ġ165":7075,"Ġpriorit":7076,"ĠAnchor":7077,"275":7078,"Ġobvious":7079,"Ġidentification":7080,"Ġlogo":7081,"performance":7082,"Ġ181":7083,"Ġindicate":7084,"pbrPolicy":7085,"Ġ923":7086,"ĠAddresses":7087,"Ġabstr":7088,"Ġrestart":7089,"Ġoriginates":7090,"Ġagree":7091,"ĠUnknown":7092,"ightly":7093,"ĠAppro":7094,"ĠApproximate":7095,"Ġkeys":7096,"Ġgood":7097,"ĠRedirect":7098,"Ġ4094":7099,"Ġscaling":7100,"ĠProvider":7101,"ĠUpon":7102,"aclBu":7103,"ĠSelectors":7104,"Ġoperators":7105,"ESI":7106,"Ġreduced":7107,"Ġchoos":7108,"ĠReserved":7109,"Ġintegrate":7110,"seconds":7111,"Ġfacility":7112,"Ġflooded":7113,"Ġ50999":7114,"Ġprobability":7115,"Ġowners":7116,"ĠThus":7117,"Ġkeyword":7118,"Ġcurrently":7119,"Ġlikely":7120,"Ġ2022":7121,"Ġcompletely":7122,"overlay":7123,"Ġmainly":7124,"Ġsenderfeature":7125,"Application":7126,"Ġtranslation":7127,"Ġmtx":7128,"Groups":7129,"Ġclients":7130,"ĠPlatforms":7131,"QinQ":7132,"Open":7133,"Ġbalance":7134,"ĠReflectors":7135,"Ġimprove":7136,"Ġimproved":7137,"Ġ--------------":7138,"Ġrecovery":7139,"Ġexecuted":7140,"learn":7141,"Ġoffering":7142,"9014":7143,"itiators":7144,"ĠCentral":7145,"Ġtrigger":7146,"ĠVerification":7147,"ĠVerified":7148,"DBP":7149,"Ġcombination":7150,"50001":7151,"Ġmonitored":7152,"Ġretransmission":7153,"ĠCodepoint":7154,"Ġpersona":7155,"Reserved":7156,"Overlay":7157,"Ġcalls":7158,"ĠReturn":7159,"Ġvendors":7160,"Ġsubsequent":7161,"ReferenceLegal":7162,"Ġtraverses":7163,"Ġhappening":7164,"Ġexplicitly":7165,"Ġimmediately":7166,"Ġconsequence":7167,"ecially":7168,"ĠTechnology":7169,"ĠGeneral":7170,"Ġstitch":7171,"Operational":7172,"Ġdivided":7173,"ĠEntries":7174,"ĠFurthermore":7175,"Ġpartnership":7176,"NETCONF":7177,"Ġideal":7178,"Ġbott":7179,"ĠNONE":7180,"Ġcountries":7181,"ufacturing":7182,"Ġaverage":7183,"Ġpowered":7184,"alysis":7185,"aclBucket":7186,"\".":7187,"'t":7188,",âĢĿ":7189,"120":7190,"389":7191,"448":7192,"7168":7193,"802":7194,"8999":7195,"906":7196,"AUL":7197,"Best":7198,"Cost":7199,"DY":7200,"Dis":7201,"Document":7202,"DWDM":7203,"First":7204,"FAUL":7205,"Limit":7206,"LACP":7207,"MB":7208,"MON":7209,"Next":7210,"NCS":7211,"NFS":7212,"OEM":7213,"PR":7214,"Pers":7215,"Pavilion":7216,"RAN":7217,"RADIUS":7218,"Running":7219,"Sl":7220,"Switch":7221,"Utilization":7222,"ak":7223,"az":7224,"aun":7225,"aight":7226,"det":7227,"die":7228,"ee":7229,"failover":7230,"gn":7231,"ience":7232,"junction":7233,"kts":7234,"mier":7235,"nical":7236,"pu":7237,"ping":7238,"rum":7239,"sistent":7240,"test":7241,"xc":7242,"Ġ------------------------":7243,"Ġtext":7244,"Ġturn":7245,"Ġtacacs":7246,"resource":7247,"ona":7248,"Ġsy":7249,"Ġsat":7250,"esk":7251,"ital":7252,"Ġcross":7253,"rows":7254,"ingtest":7255,"Ġ129":7256,"Ġ1101":7257,"Ġdport":7258,"Ġdiffere":7259,"eter":7260,"Ġinsights":7261,"Ġinvalid":7262,"ÂłĠ":7263,"alf":7264,"alancing":7265,"using":7266,"Ġnone":7267,"Ġmvpn":7268,"Ġmiss":7269,"Ġmarks":7270,"Ġmroutes":7271,"arily":7272,"arving":7273,"ĠSA":7274,"ĠSup":7275,"ĠSNAT":7276,"ĠSheet":7277,"ctm":7278,"Ġ106":7279,"ĠTwo":7280,"ĠNil":7281,"ĠNAC":7282,"aditional":7283,"ĠIEE":7284,"Ġrelay":7285,"Ġreboot":7286,"0001":7287,"ĠCurrent":7288,"Ġconc":7289,"Ġconjunction":7290,"ĠLF":7291,"ĠLay":7292,"ĠLike":7293,"ĠPRE":7294,"ĠPMON":7295,"verified":7296,"Ġ299":7297,"Ġ217":7298,"Ġ206":7299,"Ġ296":7300,"ays":7301,"odule":7302,"ĠDec":7303,"ĠDocument":7304,"ĠDedicated":7305,"ĠBest":7306,"ĠBetween":7307,"ĠBrid":7308,"ĠBalancing":7309,"ĠMost":7310,"ĠMice":7311,"ĠMnT":7312,"ĠFilter":7313,"Ġdecap":7314,"Ġdecre":7315,"unce":7316,"ectrum":7317,"922":7318,"923":7319,"Ġlarg":7320,"Ġlicens":7321,"Ġlaun":7322,"Ġhyper":7323,"Ġhmm":7324,"Ġvty":7325,"ĠvMAC":7326,"Ġvxlan":7327,"Ġalive":7328,"face":7329,"Ġexec":7330,"Ġexclud":7331,"Ġexclusive":7332,"Ġproxy":7333,"Ġ313":7334,"Ġ315":7335,"Ġ314":7336,"Ġ326":7337,"Ġ318":7338,"ĠThen":7339,"Ġstop":7340,"ifiers":7341,"Ġglob":7342,"Ġgpu":7343,"ĠInitiators":7344,"Ġshall":7345,"elnet":7346,"achines":7347,"Ġ404":7348,"ostate":7349,"ĠConclusion":7350,"Ġperman":7351,"ĠHall":7352,"Ġacknow":7353,"Ġipfm":7354,"249":7355,"Ġautostate":7356,"Ġ09":7357,"Ġrule":7358,"Ġ913":7359,"Ġopenshift":7360,"rfc":7361,"Ġimplicit":7362,"thing":7363,"Ġredist":7364,"Ġoutl":7365,"Ġcontrollers":7366,"Ġgrouped":7367,"ĠState":7368,"witchport":7369,"Ġdesigning":7370,"-----------":7371,"Ġ259":7372,"260":7373,"Ġspecifies":7374,"2528":7375,"ĠTruck":7376,"Ġ9348":7377,"redir":7378,"enses":7379,"Ġinstru":7380,"Ġclar":7381,"280":7382,"Ġbacked":7383,"Ġmajor":7384,"Ġ7168":7385,"Ġtransce":7386,"Ġ30010":7387,"ĠAlways":7388,"ĠAlthough":7389,"Ġprior":7390,"brid":7391,"Ġobserved":7392,"Ġredirecting":7393,"Ġidentical":7394,"hensive":7395,"Ġ186":7396,"paring":7397,"RMIT":7398,"prehensive":7399,"Ġbuffering":7400,"Ġ921":7401,"Ġ924":7402,"Ġapproximate":7403,"952":7404,"9736":7405,"Ġweight":7406,"Ġweighted":7407,"Ġrestrict":7408,"ĠPrepend":7409,"Ġ243":7410,"Ġ244":7411,"Ġconsistently":7412,"peers":7413,"Ġverified":7414,"ĠPool":7415,"Ġcompleted":7416,"communitysend":7417,"elecom":7418,"Spanned":7419,"Ġstatement":7420,"Onboarding":7421,"Ġfigures":7422,"Ġoptimization":7423,"hostname":7424,"Ġselecting":7425,"Ġ276":7426,"Ġ278":7427,"Ġ279":7428,"Ġmodified":7429,"Ġmean":7430,"Ġpossibility":7431,"Ġquantity":7432,"Loopback":7433,"Ġ284":7434,"Ġstartup":7435,"ĠWithout":7436,"Ġmaintains":7437,"Ġestablishment":7438,"Ġ210205":7439,"balancing":7440,"Ġ260":7441,"outhbound":7442,"Ġdirections":7443,"Ġextends":7444,"Ġintroducing":7445,"Outbound":7446,"Ġsimplified":7447,"Ġinterconnection":7448,"ĠSimilar":7449,"ĠExtended":7450,"ĠExtensions":7451,"Ġ339":7452,"Ġremoves":7453,"Ġdecide":7454,"Shared":7455,"ĠAggregation":7456,"Ġretain":7457,"Ġtransmitting":7458,"Ġboundaries":7459,"cloudsrv":7460,"rmon":7461,"ĠBackups":7462,"Ġeffort":7463,"ĠTimeout":7464,"ĠWorks":7465,"Ġtranslate":7466,"Ġstraight":7467,"Ġguidelines":7468,"Ġvalidation":7469,"Unit":7470,"ĠJDY":7471,"devi":7472,"Ġkvm":7473,"Ġkernel":7474,"Ġmetadata":7475,"ĠAssoci":7476,"ETRAP":7477,"subtree":7478,"Ġ65501":7479,"ĠDCNM":7480,"ĠAttributes":7481,"Ġalgorithms":7482,"Ġenhanced":7483,"Selector":7484,"Ġbalanc":7485,"ĠRefer":7486,"Ġpropagate":7487,"Ġblack":7488,"Ġbpps":7489,"Ġ54321":7490,"Ġinstallation":7491,"================================================":7492,"Ġfewer":7493,"Ġrecover":7494,"Advertisements":7495,"ĠAudience":7496,"Ġ2048":7497,"Ġchannels":7498,"Ġsnmp":7499,"Ġmicrobursts":7500,"Ġqueries":7501,"Ġmemberships":7502,"ĠEtherChannels":7503,"EPL":7504,"nvme":7505,"Ġaspects":7506,"ruptive":7507,"Ġfaulty":7508,"Ġdeveloped":7509,"Ġprotect":7510,"Ġretransmit":7511,"username":7512,"ĠMultiprotocol":7513,"Ġaimed":7514,"ĠBlueprint":7515,"ĠHandoff":7516,"ĠQueuing":7517,"Ġexperienced":7518,"irmware":7519,"ĠConsum":7520,"Accounting":7521,"DEFAUL":7522,"xlsx":7523,"Ġ65303":7524,"Ġincrementing":7525,"Centric":7526,"Ġpipeline":7527,"Ġhttps":7528,"ĠGBP":7529,"Ġarrival":7530,"Ġarguments":7531,"Ġpbrfeature":7532,"Ġunintention":7533,"Fragment":7534,"Platform":7535,"Worker":7536,"scalability":7537,"Ġgeograph":7538,"ĠApproach":7539,"ĠIEEE":7540,"ĠLayout":7541,"ĠPRESE":7542,"Ġlicenses":7543,"Ġexclusively":7544,"Ġglobally":7545,"Ġpermanently":7546,"ĠJDYk":7547,"deviations":7548,"DEFAULT":7549,".âĢĿ":7550,"2102":7551,"904":7552,">]":7553,"AB":7554,"AD":7555,"Ar":7556,"Both":7557,"Dst":7558,"Date":7559,"Direct":7560,"Die":7561,"Distributed":7562,"Elephant":7563,"FF":7564,"FTE":7565,"Finally":7566,"GA":7567,"Gr":7568,"Is":7569,"IDI":7570,"KB":7571,"MX":7572,"Max":7573,"OSE":7574,"Option":7575,"Peer":7576,"Password":7577,"RV":7578,"Ref":7579,"RESTCONF":7580,"Rosen":7581,"Sync":7582,"VN":7583,"VPC":7584,"VACL":7585,"XR":7586,"bin":7587,"cc":7588,"direct":7589,"destination":7590,"flash":7591,"gith":7592,"non":7593,"nance":7594,"pinning":7595,"ror":7596,"right":7597,"sible":7598,"vIP":7599,"Ġkn":7600,"Ġesp":7601,"Ġtail":7602,"Ġtuples":7603,"Ġau":7604,"inside":7605,"hest":7606,"res":7607,"rees":7608,"ongs":7609,"onstr":7610,"orst":7611,"ories":7612,"Ġsust":7613,"Ġself":7614,"icon":7615,"icity":7616,"icture":7617,"enable":7618,"isec":7619,"Ġfed":7620,"Ġclean":7621,"Ġpen":7622,"Ġpatch":7623,"Ġ122":7624,"lookup":7625,"aces":7626,"used":7627,"igination":7628,"igible":7629,"Ġworst":7630,"ably":7631,"arning":7632,"arms":7633,"ĠSize":7634,"ĠSRC":7635,"ĠSRV":7636,"Ġ107":7637,"ĠTitle":7638,"ĠTrees":7639,"ĠNe":7640,"ĠIss":7641,"Ġcontr":7642,"Ġecho":7643,"ssible":7644,"ĠPT":7645,"verged":7646,"Ġ216":7647,"Ġ223":7648,"Ġ2101":7649,"Ġthous":7650,"Ġones":7651,"ĠDuring":7652,"ĠDeny":7653,"ĠBursts":7654,"ĠBusiness":7655,"ĠMaster":7656,"ĠEas":7657,"ĠFollowing":7658,"Ġdeco":7659,"state":7660,"stablis":7661,"ĠRJ":7662,"ĠRelated":7663,"imeter":7664,"Ġlon":7665,"Ġland":7666,"aptive":7667,"Ġencryp":7668,"Ġ327":7669,"Ġswitched":7670,"Ġaddressed":7671,"Ġanno":7672,"Ġstand":7673,"Ġgives":7674,"outs":7675,"outside":7676,"Ġcoming":7677,"Ġcomposed":7678,"umbo":7679,"vere":7680,"ĠHop":7681,"Ġbyte":7682,"ĠGo":7683,"Ġ514":7684,"Ġunidirectional":7685,"Ġprep":7686,"Ġnotice":7687,"Ġoversubscription":7688,"Ġwhy":7689,"ĠMultitenancy":7690,"Ġleft":7691,"ĠAdj":7692,"Inner":7693,"uality":7694,"Ġoutage":7695,"Ġoutcome":7696,"Ġcontrols":7697,"ĠProcess":7698,"ĠProbe":7699,"262":7700,"Ġspecifying":7701,"Ġchip":7702,"Ġ9336":7703,"Ġ173":7704,"Ġlinked":7705,"Ġ81":7706,"keepalive":7707,"orderroute":7708,"ĠLookup":7709,"Studio":7710,"cludes":7711,"Ġspecifications":7712,"MPTE":7713,"ensive":7714,"command":7715,"Ġ71":7716,"Ġ75":7717,"Ġcontaining":7718,"NDI":7719,"Ġdisk":7720,"ĠAnsible":7721,"ĠNATUnicast":7722,"Ġstatically":7723,"Ġround":7724,"Ġmanner":7725,"Ġlogic":7726,"Ġ1301":7727,"Ġ13001":7728,"vents":7729,"ventions":7730,"Ġclasses":7731,"ĠAutom":7732,"ĠAutonomous":7733,"VRFs":7734,"SPAN":7735,"ĠNodeswitchport":7736,"Forward":7737,"utilization":7738,"ĠNVIDI":7739,"Ġ50051":7740,"Ġpeerings":7741,"Ġutilizing":7742,"Ġcompris":7743,"ĠModeIndividual":7744,"Ġexpress":7745,"Ġseparated":7746,"Serial":7747,"Ġlatter":7748,"Ġallocate":7749,"Multiple":7750,"Ġ0000":7751,"ASLR":7752,"ĠUnit":7753,"Prov":7754,"Ġstateful":7755,"Ġtechnical":7756,"Ġformed":7757,"ÂłÂłÂłÂłÂłÂłÂłÂłÂłÂłÂłÂłÂłÂłÂłÂłÂłÂłÂłÂł":7758,"ĠBuild":7759,"ĠBuilt":7760,"Ġtunneling":7761,"Ġachieves":7762,"Ġmodification":7763,"Ġcontainers":7764,"ĠWhy":7765,"ĠSeq":7766,"Ġstreams":7767,"Ġavoiding":7768,"Ġeventually":7769,"Ġways":7770,"Ġstarting":7771,"Ġtimers":7772,"Ġrelative":7773,"ĠReser":7774,"Ġvaries":7775,"ĠBuffering":7776,"Ġinterconnects":7777,"ĠImplementation":7778,"ĠUGH":7779,"aterial":7780,"ĠSimultaneous":7781,"Ġ9508":7782,"Ġgraceful":7783,"Ġready":7784,"Ġremove":7785,"Ġentering":7786,"Ġmatrix":7787,"ĠNICs":7788,"Ġissued":7789,"snsr":7790,"ĠConsideration":7791,"BGWs":7792,"ĠGuidelines":7793,"Applied":7794,"Ġ12800":7795,"Ġmarket":7796,"Ġ------":7797,"counts":7798,"Ġterminate":7799,"VTEPs":7800,"ĠSitesUse":7801,"ĠSitesSplit":7802,"iliar":7803,"Ġkbytes":7804,"Ġinvolved":7805,"Optimized":7806,"Ġhighest":7807,"ĠChange":7808,"Ġnotifications":7809,"ĠCenters":7810,"alculate":7811,"Ġdetermines":7812,"Ġexhib":7813,"Ġreflects":7814,"Ġwritten":7815,"ĠNavigate":7816,"Ġ13002":7817,"Ġselectively":7818,"Important":7819,"ĠIntegration":7820,"optimized":7821,"Ġdemonstr":7822,"Ġeffectively":7823,"ĠRetr":7824,"Ġexpanded":7825,"Ġsubsequently":7826,"Similarly":7827,"Ġpushed":7828,"ĠAppendix":7829,"Ġmultipath":7830,"sensor":7831,"Ġfamiliar":7832,"Ġsubscribe":7833,"Origin":7834,"ĠBasics":7835,"Ġinteroperability":7836,"Ġbreakouts":7837,"Ġwaiting":7838,"Ġoverlap":7839,"failroute":7840,"memory":7841,"Ġcompares":7842,"idental":7843,"Ġaccuracy":7844,"ĠKeepalive":7845,"LOUs":7846,"Ġyears":7847,"Ġdifference":7848,"Ġlaunch":7849,"github":7850,"Ġespecially":7851,"ĠIssue":7852,"Ġthousands":7853,"stablishing":7854,"ĠNVIDIA":7855,"+).":7856,"+--------------------------------":7857,"-,":7858,".:":7859,"1102":7860,"232":7861,"536":7862,"628":7863,"7216":7864,"8100":7865,"900":7866,"912":7867,"913":7868,"905":7869,"907":7870,"Action":7871,"ATCH":7872,"Back":7873,"BUM":7874,"Co":7875,"Check":7876,"CUSTOMER":7877,"DK":7878,"Day":7879,"During":7880,"Duplicate":7881,"EC":7882,"Establishing":7883,"FIP":7884,"Global":7885,"GRPC":7886,"HX":7887,"Hel":7888,"Hops":7889,"HSM":7890,"IL":7891,"Jp":7892,"JGroups":7893,"KMS":7894,"LP":7895,"Man":7896,"Media":7897,"Matrix":7898,"NVE":7899,"Oct":7900,"Other":7901,"PH":7902,"Pod":7903,"RO":7904,"RCisco":7905,"RACL":7906,"RVE":7907,"SI":7908,"Switches":7909,"SNS":7910,"Some":7911,"SOD":7912,"Th":7913,"TAm":7914,"Ver":7915,"We":7916,"WOR":7917,"aking":7918,"bash":7919,"der":7920,"dle":7921,"dam":7922,"dom":7923,"discovery":7924,"gue":7925,"hold":7926,"hsm":7927,"ii":7928,"ivery":7929,"master":7930,"nve":7931,"nces":7932,"number":7933,"napshot":7934,"oR":7935,"private":7936,"panel":7937,"rap":7938,"ride":7939,"sest":7940,"sized":7941,"summary":7942,"template":7943,"towards":7944,"uit":7945,"vations":7946,"ĠÂłÂłÂłÂł":7947,"ĠâĹı":7948,"Ġtelecom":7949,"Ġaz":7950,"inip":7951,"inary":7952,"reg":7953,"reed":7954,"onses":7955,"Ġsure":7956,"Ġsom":7957,"Ġsour":7958,"Ġsix":7959,"Ġscheduling":7960,"ico":7961,"encryp":7962,"esired":7963,"itial":7964,"iser":7965,"Ġfilt":7966,"Ġcur":7967,"Ġcycle":7968,"ropp":7969,"Ġpure":7970,"Ġpopulated":7971,"Ġpingtest":7972,"Ġ197":7973,"Ġblan":7974,"Ġbidirectional":7975,"Ġdid":7976,"Ġdashboard":7977,"Ġdriven":7978,"Ġinno":7979,"alu":7980,"anner":7981,"Ġold":7982,"Ġodd":7983,"acle":7984,"Ġnbm":7985,"Ġnumer":7986,"Ġmalic":7987,"Ġmachines":7988,"ĠSLA":7989,"ĠSOD":7990,"ĠSplit":7991,"ĠSYS":7992,"ĠSnapshot":7993,"ĠTemplates":7994,"ĠNative":7995,"ĠNOT":7996,"ĠCUSTOMER":7997,"Ġ(\"":7998,"Ġconduct":7999}